[PAD]	0
[OOV]	0
[BOS]	0
[EOS]	0
.	-3.26102
▁	-3.73823
..	-4.19761
...	-4.44754
▁영화	-4.47632
,	-4.72628
의	-4.84376
이	-4.87089
도	-4.983
가	-5.0668
는	-5.10261
?	-5.13166
을	-5.29653
에	-5.33332
▁너무	-5.38359
!	-5.44237
▁정말	-5.48226
은	-5.51522
다	-5.61701
▁이	-5.64528
고	-5.69081
▁진짜	-5.70556
를	-5.74866
~	-5.79928
지	-5.80318
만	-5.82096
로	-5.99971
한	-6.13866
나	-6.14066
점	-6.15651
과	-6.18767
영화	-6.21324
게	-6.24631
▁1	-6.2472
▁왜	-6.24983
▁더	-6.26379
!!	-6.27565
▁잘	-6.28446
▁그	-6.28955
▁이런	-6.29695
▁다	-6.30925
▁수	-6.35991
▁그냥	-6.36618
....	-6.43351
하고	-6.46758
으로	-6.47907
와	-6.51051
에서	-6.5148
▁10	-6.51785
▁안	-6.52191
▁아	-6.53346
▁보고	-6.58792
▁영화를	-6.60684
▁본	-6.63128
▁좀	-6.63174
라	-6.64179
▁드라마	-6.65338
▁평점	-6.65496
인	-6.69207
요	-6.72661
▁연기	-6.73642
기	-6.73871
네	-6.74887
하는	-6.7512
▁내	-6.76417
▁ᄏᄏ	-6.77702
▁영화가	-6.77937
▁봤는데	-6.7798
들	-6.78113
▁영화는	-6.78212
▁최고의	-6.8162
▁내가	-6.83254
▁이거	-6.83982
▁없는	-6.8435
▁완전	-6.85187
▁한	-6.8616
아	-6.87612
어	-6.87906
▁없다	-6.88406
▁참	-6.88505
▁쓰레기	-6.88778
▁이건	-6.89017
서	-6.89961
거	-6.90762
▁스토리	-6.91039
▁좋은	-6.93416
▁최고	-6.94436
ᄏᄏ	-6.95536
!!!	-6.95812
▁있는	-6.96438
해	-6.9654
▁2	-6.97687
▁이렇게	-6.97823
▁3	-7.00131
▁이게	-7.01387
▁다시	-7.01949
▁보는	-7.02964
야	-7.0308
보다	-7.05369
자	-7.06373
면	-7.08989
▁평점이	-7.0933
▁많이	-7.09461
^^	-7.10688
▁것	-7.10764
▁난	-7.11424
ᄏ	-7.12118
네요	-7.12743
이다	-7.12924
▁역시	-7.15555
▁그리고	-7.16778
지만	-7.18848
~~	-7.19438
대	-7.19605
수	-7.19915
까지	-7.20184
리	-7.22369
니	-7.23258
▁재밌게	-7.25825
해서	-7.25849
▁뭐	-7.26158
▁하는	-7.26546
임	-7.26664
??	-7.27108
▁못	-7.28949
▁또	-7.29106
'	-7.29478
건	-7.29606
랑	-7.29726
들이	-7.31008
듯	-7.31025
;;	-7.31405
▁작품	-7.32349
▁개	-7.32444
▁넘	-7.32629
▁없고	-7.32829
일	-7.3389
▁아깝다	-7.33911
▁ᄏᄏᄏ	-7.34318
▁꼭	-7.36007
▁마지막	-7.36245
진짜	-7.36982
▁재미	-7.37594
▁가장	-7.3774
인데	-7.38349
하게	-7.38428
1	-7.38451
▁볼	-7.38978
▁보면	-7.39758
함	-7.40257
데	-7.41257
)	-7.41478
▁무슨	-7.41694
여	-7.42078
할	-7.42432
▁별로	-7.4247
ᅲᅲ	-7.45185
사	-7.45261
냐	-7.45554
진	-7.45583
▁감동	-7.45977
음	-7.46473
안	-7.46549
시	-7.46825
구	-7.46881
보고	-7.48437
년	-7.49716
▁감독	-7.50304
2	-7.51401
▁ᄏ	-7.51628
스	-7.51889
하다	-7.51972
▁별	-7.53283
ᄏᄏᄏ	-7.53913
▁영화다	-7.54096
▁만든	-7.54545
▁ᅲᅲ	-7.54819
하	-7.55003
는데	-7.55591
▁같은	-7.55979
▁하나	-7.56567
던	-7.56684
▁다른	-7.57189
중	-7.57705
같은	-7.57727
▁'	-7.58077
적	-7.58324
▁중	-7.58786
▁이야기	-7.58945
;	-7.59141
ᅲ	-7.59504
▁지금	-7.59518
라고	-7.5968
좀	-7.6011
너무	-7.60463
▁끝까지	-7.6057
▁전	-7.6222
▁나	-7.63493
▁ᅳᅳ	-7.63661
미	-7.64451
▁할	-7.64853
▁액션	-7.64859
▁하지만	-7.65089
▁솔직히	-7.65524
정말	-7.65554
라는	-7.65645
급	-7.65885
▁명작	-7.67176
주	-7.67177
▁와	-7.67452
▁같다	-7.6781
▁좋다	-7.6787
▁대한	-7.68382
▁말이	-7.68616
▁말	-7.68687
▁전혀	-7.6902
▁있다	-7.70195
▁시간	-7.70432
처럼	-7.7123
▁느낌	-7.71859
개	-7.71871
입니다	-7.71965
▁아주	-7.72073
용	-7.72486
▁봐도	-7.72725
(	-7.7277
치	-7.74202
이나	-7.74333
내	-7.74608
하지	-7.74895
▁ᄒᄒ	-7.74957
것	-7.75096
▁연출	-7.76324
▁내용	-7.76794
▁뭔가	-7.77517
▁많은	-7.78637
했다	-7.79094
▁재밌다	-7.791
ᅳᅳ	-7.79739
▁내내	-7.7982
▁굿	-7.80354
분	-7.80428
▁처음	-7.80478
▁저	-7.80938
▁한국	-7.81098
▁하고	-7.81114
▁재미있게	-7.81282
전	-7.813
▁봤다	-7.81362
그	-7.81775
▁않고	-7.81982
씨	-7.8199
▁어떻게	-7.82774
▁최악의	-7.83025
오	-7.83519
때문에	-7.8383
우	-7.84011
3	-7.84116
신	-7.84835
인지	-7.85006
▁계속	-7.85295
세	-7.85511
질	-7.86108
▁배우	-7.86164
정	-7.86254
인가	-7.86344
▁내용이	-7.86631
▁짱	-7.86866
▁오	-7.87092
▁그래도	-7.8739
에게	-7.87659
▁이걸	-7.87711
부터	-7.88055
,,	-7.88135
걸	-7.88403
▁때	-7.88689
▁듯	-7.895
적인	-7.89674
▁모두	-7.90105
▁아니다	-7.9031
상	-7.90924
드	-7.90986
-	-7.91012
한다	-7.91268
▁아니라	-7.91706
▁연기가	-7.91805
▁사랑	-7.91963
▁재미없다	-7.92286
▁모든	-7.92488
▁나오는	-7.92646
란	-7.92677
된	-7.9294
▁딱	-7.93168
▁4	-7.93185
▁하	-7.93469
▁두	-7.941
▁제일	-7.94339
▁아닌	-7.95045
▁줄	-7.95295
마	-7.95477
보	-7.95523
비	-7.95531
▁근데	-7.95572
▁돈	-7.95605
때	-7.95678
점도	-7.95733
드라마	-7.95925
▁아름다운	-7.95933
▁않은	-7.96397
▁일본	-7.96671
편	-7.96845
▁대박	-7.96986
▁나는	-7.97341
▁최악	-7.97405
▁5	-7.975
▁한번	-7.97718
▁아니	-7.98291
▁그런	-7.98299
▁연기도	-7.98336
성	-7.98773
▁7	-7.99437
▁제대로	-7.9947
▁거	-7.99516
있는	-7.99554
▁보다가	-7.99794
▁생각	-8.00095
더	-8.00142
▁스토리가	-8.002
▁감독이	-8.00442
▁이영화	-8.00594
▁않는	-8.00943
ᄒᄒ	-8.01213
장	-8.01775
▁영화의	-8.02324
▁여자	-8.02538
부	-8.02623
▁아니고	-8.02713
▁내용도	-8.02731
소	-8.02731
▁만드는	-8.03277
이랑	-8.03448
▁배우들	-8.03507
▁OO	-8.03935
없는	-8.04061
▁코미디	-8.04118
들의	-8.046
▁지	-8.04707
화	-8.05451
군	-8.06016
하지만	-8.06246
▁때문에	-8.06863
말	-8.07225
▁영화라고	-8.07386
이라	-8.07544
▁0	-8.07723
▁요즘	-8.08918
류	-8.09182
▁싶다	-8.09257
원	-8.09296
▁아직도	-8.09343
▁보기	-8.09727
▁보다	-8.10018
▁시간이	-8.10176
▁사람	-8.10347
물	-8.10372
~~~	-8.10425
▁차라리	-8.11323
두	-8.11483
▁절대	-8.11573
이라는	-8.1167
하면	-8.11679
▁재미도	-8.11835
▁주인공	-8.11924
▁재밌어요	-8.12334
▁영화입니다	-8.12981
▁좋았다	-8.13154
면서	-8.13311
▁걍	-8.13917
▁8	-8.14031
▁아까운	-8.14138
▁도대체	-8.14298
▁진심	-8.14345
▁여운이	-8.14395
본	-8.14541
년대	-8.14669
▁엄청	-8.14815
▁기대	-8.1493
▁스토리도	-8.1498
긴	-8.15236
ᄒ	-8.15511
▁주	-8.15879
▁스릴러	-8.16025
▁나도	-8.16137
했던	-8.16363
▁감독의	-8.16545
▁인생	-8.16638
연기	-8.16914
▁오랜만에	-8.17012
▁특히	-8.1715
▁나름	-8.17213
▁마지막에	-8.17662
▁보면서	-8.18203
남	-8.18325
▁주는	-8.18408
▁영화에	-8.18627
!!!!	-8.1891
▁일	-8.19033
당	-8.19088
ᅳ	-8.19301
단	-8.19307
죠	-8.19429
유	-8.1944
""	-8.19558
구나	-8.19982
며	-8.20002
▁되는	-8.20043
▁없음	-8.20137
길	-8.20261
줄	-8.20327
명	-8.20496
봤는데	-8.20702
▁ᄏᄏᄏᄏ	-8.21102
▁봤습니다	-8.21107
▁제	-8.21164
▁좋고	-8.21231
▁좋아하는	-8.21301
▁이제	-8.21423
시간	-8.21972
한테	-8.22008
▁우리	-8.22174
점은	-8.22479
▁조금	-8.22909
난	-8.23068
들은	-8.23179
잘	-8.2331
조	-8.23391
식	-8.2342
▁뻔한	-8.23528
▁사	-8.23576
▁남는	-8.23605
▁지루하고	-8.23812
▁OOO	-8.23881
보면	-8.23991
제	-8.24193
▁해	-8.24236
없이	-8.24345
습니다	-8.24352
▁이해가	-8.24907
▁없이	-8.25029
▁생각이	-8.25151
무	-8.25226
▁어떤	-8.25334
선	-8.25389
▁^^	-8.25398
▁멋진	-8.25477
엔	-8.25529
▁전개	-8.25714
10	-8.2619
영	-8.26719
▁ᅲ	-8.26756
▁사람이	-8.27577
▁최고다	-8.27827
▁대	-8.27875
▁배우들의	-8.27999
ᅮᅮ	-8.28155
♥	-8.28309
이란	-8.28395
이고	-8.28418
짱	-8.291
살	-8.29285
???	-8.29911
트	-8.29919
합니다	-8.29925
▁보는내내	-8.30088
▁막장	-8.3011
▁후	-8.30524
▁함께	-8.30595
동	-8.30622
려	-8.30969
▁얼마나	-8.31255
러	-8.31347
▁뭘	-8.31356
▁알	-8.31432
▁싶은	-8.3154
▁보세요	-8.31546
▁봤던	-8.31551
되는	-8.31579
▁건	-8.31584
▁추천	-8.3164
▁결말	-8.31726
▁반전	-8.31808
그냥	-8.32355
▁B	-8.32391
▁지루한	-8.32449
왜	-8.32483
▁재미가	-8.32509
▁20	-8.32722
라도	-8.32757
▁장면	-8.33025
▁그저	-8.33178
▁가	-8.33302
ᄏᄏᄏᄏ	-8.33361
▁자	-8.33738
▁9	-8.33838
점이	-8.33903
▁재밌는	-8.34144
▁큰	-8.34186
▁유	-8.34349
어요	-8.34437
▁"	-8.34699
▁안되는	-8.35216
들을	-8.35283
▁정도	-8.35613
▁괜찮은	-8.35773
▁남자	-8.35952
이라고	-8.36094
▁영화로	-8.36233
▁반	-8.36293
▁수준	-8.36304
님	-8.36337
까	-8.36364
▁실망	-8.36423
▁개인적으로	-8.36549
▁아무리	-8.36776
▁보	-8.36794
▁기억에	-8.36996
히	-8.37056
▁연기는	-8.37151
인듯	-8.37217
하나	-8.37331
▁못한	-8.37397
타	-8.37677
▁애니	-8.38044
▁졸작	-8.38483
▁어	-8.38545
▁이해	-8.38888
▁그렇게	-8.39024
▁지루하다	-8.39663
,,,	-8.39787
▁좋아	-8.39853
하네	-8.40245
▁매우	-8.40343
▁나온	-8.40453
~!	-8.40851
연	-8.41038
모	-8.41116
감	-8.41503
바	-8.41757
▁제발	-8.41838
심	-8.42064
▁6	-8.42417
날	-8.42476
위	-8.42505
▁음악	-8.42553
▁있고	-8.42621
▁된	-8.42714
▁이상	-8.42768
▁공포	-8.42854
▁모르겠다	-8.42968
▁좋아요	-8.43036
▁같이	-8.4353
하네요	-8.43655
▁것이	-8.43745
▁오늘	-8.43752
▁""	-8.43776
노	-8.4406
간	-8.44106
적으로	-8.44434
▁봤어요	-8.44813
▁극장에서	-8.45475
/	-8.45641
없다	-8.45651
▁너무나	-8.45725
▁알바	-8.4574
호	-8.45761
루	-8.45817
스토리	-8.45972
▁하나도	-8.46044
▁마음이	-8.4613
으면	-8.46394
▁않는다	-8.46492
▁위한	-8.4657
▁우리나라	-8.46758
▁신	-8.47131
▁걸	-8.47239
▁정	-8.47254
▁결국	-8.47416
저	-8.47473
디	-8.47674
보는	-8.47776
박	-8.47781
▁미	-8.48069
▁비	-8.48203
▁위해	-8.48317
번	-8.48579
▁공포영화	-8.48669
;;;	-8.48784
재	-8.48852
▁만들어	-8.48962
▁한다	-8.49018
▁기분	-8.49213
▁수작	-8.494
▁뭔	-8.49624
▁기	-8.49764
다니	-8.50207
▁개봉	-8.50299
준	-8.50472
▁ᄒ	-8.50812
4	-8.5084
▁될	-8.5109
그리고	-8.51188
▁연기력	-8.51546
▁시	-8.51863
▁막	-8.51967
린	-8.52127
▁게	-8.52147
후	-8.52245
발	-8.52411
▁영화네요	-8.52473
지는	-8.52636
▁재밌음	-8.52757
▁애니메이션	-8.52841
▁가슴	-8.53001
방	-8.53072
▁영	-8.53157
▁강추	-8.53266
▁내용은	-8.53285
작	-8.53387
▁보지	-8.53598
▁눈물	-8.54023
했는데	-8.54034
해도	-8.5419
었다	-8.54238
▁보게	-8.54263
ᅮ	-8.54506
최고	-8.54783
▁준	-8.54929
▁존나	-8.55032
▁갈수록	-8.55282
▁마	-8.55323
▁그나마	-8.55784
▁누가	-8.56036
크	-8.56122
▁지루함	-8.56122
▁눈물이	-8.56136
회	-8.56242
▁가슴이	-8.56323
▁조	-8.56388
니까	-8.56395
▁대체	-8.5645
평점	-8.56765
▁대사	-8.56765
판	-8.56774
이지만	-8.5678
▁꽤	-8.56893
이런	-8.57053
다가	-8.57059
▁결말이	-8.5731
넘	-8.57852
점을	-8.57895
▁ᅮᅮ	-8.57926
▁느낌이	-8.58231
▁재미없음	-8.58304
▁훨씬	-8.58339
▁기억이	-8.58397
▁시작	-8.58576
운	-8.5922
지도	-8.59721
되	-8.59793
하며	-8.59812
든	-8.59962
▁밖에	-8.60119
하면서	-8.60211
▁그래서	-8.60217
▁연기를	-8.60249
래	-8.6026
▁재밌고	-8.60319
르	-8.60348
▁어설픈	-8.60408
밖에	-8.60579
▁않다	-8.60653
건지	-8.60807
으	-8.60998
만큼	-8.61241
▁쓰레기영화	-8.61297
▁날	-8.61456
▁억지	-8.61522
▁무	-8.61963
▁보여주는	-8.62308
▁고	-8.62334
이야	-8.62466
프	-8.62533
참	-8.62793
▁알고	-8.62944
따	-8.6295
▁속	-8.63028
▁CG	-8.63044
는지	-8.63184
는게	-8.63289
▁시리즈	-8.63387
차	-8.63417
파	-8.63698
▁음	-8.63705
▁다들	-8.63838
▁사람들	-8.64016
완전	-8.64213
▁없었다	-8.64403
▁몇	-8.64541
▁아쉽다	-8.64644
▁시즌	-8.64671
▁주고	-8.64739
산	-8.6489
▁남	-8.65094
▁사람들이	-8.65351
반	-8.65418
배우	-8.65438
▁간만에	-8.65476
▁영화관에서	-8.65722
생각	-8.65733
피	-8.65738
+	-8.65851
▁것도	-8.65967
▁미국	-8.66104
배	-8.66126
못	-8.66134
▁기억	-8.66225
▁영화중	-8.667
레	-8.6676
▁것을	-8.66895
▁잔잔한	-8.67065
▁소재	-8.67108
▁영상	-8.67181
는거	-8.67281
애	-8.6759
감독	-8.67861
▁노래	-8.68139
민	-8.68268
더라	-8.68572
▁그만	-8.68858
져	-8.68982
▁부	-8.69104
▁만들	-8.6918
▁아님	-8.69239
▁노잼	-8.69262
▁바로	-8.6938
▁긴장감	-8.69431
▁생각을	-8.69517
▁영화였다	-8.69594
것도	-8.69595
▁걸작	-8.69707
▁같아요	-8.69726
▁없어	-8.6977
▁감동적인	-8.69857
울	-8.69946
5	-8.69958
▁김	-8.6996
▁30	-8.69975
▁소	-8.70186
▁세	-8.70225
▁감동도	-8.70329
▁대해	-8.70366
▁캐릭터	-8.70411
중에	-8.70583
▁재미있는	-8.70691
하기	-8.70696
했음	-8.70759
▁생각보다	-8.70925
려고	-8.70961
▁노	-8.7106
▁진정한	-8.71109
▁좋은데	-8.71251
▁원작	-8.71349
▁모	-8.71525
겨	-8.7155
▁원	-8.71629
▁상당히	-8.71784
▁-	-8.71802
문	-8.71933
▁준다	-8.71945
정도	-8.72615
점대	-8.72672
▁스토리는	-8.72716
▁재미있다	-8.72745
▁그대로	-8.72758
▁했는데	-8.73029
▁애들	-8.73402
▁배우들이	-8.73424
▁공감	-8.73762
▁같은데	-8.74092
이건	-8.74117
▁감동을	-8.74228
▁한국영화	-8.74272
티	-8.74308
▁정도로	-8.74319
▁중간에	-8.74369
▁미친	-8.7437
봄	-8.74748
▁점수	-8.75211
▁당시	-8.7525
▁재미는	-8.75324
였다	-8.75476
▁시나리오	-8.75696
키	-8.7572
▁감동이	-8.75774
터	-8.75914
생	-8.76077
▁나와서	-8.7608
▁만화	-8.76107
겠다	-8.76152
뿐	-8.76162
▁있을까	-8.76246
▁재미있어요	-8.76299
▁영화도	-8.76395
▁몰입도	-8.76704
인줄	-8.7692
▁끝	-8.76949
▁자기	-8.77527
워	-8.77616
▁캐스팅	-8.77626
▁있지만	-8.77777
▁재밌네요	-8.78054
▁되	-8.78133
속	-8.78144
이거	-8.78254
등	-8.78715
실	-8.78727
▁뭐지	-8.78843
▁피	-8.78952
년이	-8.78993
작품	-8.79058
▁봤지만	-8.79289
▁로맨스	-8.79332
▁별점	-8.79359
▁보니	-8.79377
▁거의	-8.7952
▁발연기	-8.79569
▁가족	-8.79789
▁애	-8.7995
▁장면이	-8.80286
▁약간	-8.80302
던데	-8.80704
▁뿐	-8.80774
▁마음에	-8.80809
▁표현	-8.8088
▁강	-8.80932
거야	-8.80935
▁바	-8.80967
주는	-8.80988
s	-8.8119
▁ᅳ	-8.8124
초	-8.8137
▁박	-8.81432
▁나의	-8.81439
▁굉장히	-8.81687
느낌	-8.81838
▁배	-8.81957
▁불	-8.8213
▁영화임	-8.82224
▁볼만한	-8.8223
▁갑자기	-8.82232
현	-8.8225
하는데	-8.82313
▁눈	-8.82327
영화는	-8.82382
▁인간	-8.82396
▁뭐야	-8.82635
▁제가	-8.82762
해요	-8.82936
편은	-8.82947
구만	-8.83023
▁봐서	-8.83083
▁어디서	-8.8314
형	-8.8319
있다	-8.83251
공	-8.83306
림	-8.83399
▁훌륭한	-8.83575
▁있어서	-8.83718
▁이영화를	-8.83788
▁우	-8.84068
▁저런	-8.84149
▁단	-8.8416
▁원작을	-8.84256
▁새로운	-8.84344
▁뭐냐	-8.8444
o	-8.84463
▁재미없는	-8.84833
▁전부	-8.84834
"	-8.84836
▁평점을	-8.84857
▁욕	-8.84945
카	-8.84978
▁후회	-8.85123
국	-8.85369
경	-8.8574
이네	-8.85778
▁사실	-8.85783
▁하지	-8.86219
관	-8.86226
▁문제	-8.8639
내용	-8.86544
알	-8.86665
즈	-8.86725
꺼	-8.8674
▁영화인데	-8.86973
코	-8.87095
▁적	-8.87151
녀	-8.87215
▁살	-8.87216
대로	-8.87414
▁주연	-8.87495
▁대단한	-8.87746
~!!	-8.87805
▁주인공이	-8.8781
땜에	-8.88017
▁90	-8.88056
▁생각하게	-8.88103
▁판타지	-8.88121
▁장	-8.88261
▁항상	-8.88495
봐	-8.88506
▁못하는	-8.88516
▁봐라	-8.88527
▁일단	-8.88638
▁작가	-8.88644
▁자체가	-8.88726
▁매력	-8.88756
태	-8.88761
▁하다	-8.8885
희	-8.88865
▁구	-8.88899
▁그런지	-8.89353
▁봤음	-8.89463
군요	-8.89481
없고	-8.89594
▁맘에	-8.89709
▁해서	-8.89754
봤다	-8.8982
보단	-8.89902
▁저는	-8.90019
쓰레기	-8.90145
▁마음	-8.90272
▁그러나	-8.90293
▁혼자	-8.906
▁비해	-8.90816
▁더빙	-8.90895
>	-8.90944
근데	-8.90947
▁이딴	-8.91017
▁가지고	-8.91128
▁있는데	-8.91225
▁말도	-8.91454
라면	-8.91743
▁아까움	-8.918
▁없어서	-8.91937
▁했다	-8.91974
해야	-8.92099
▁코믹	-8.92136
사람	-8.92268
▁충분히	-8.92305
▁TV	-8.92604
사랑	-8.92685
병	-8.92737
에도	-8.92828
▁사람은	-8.92912
수준	-8.92995
영화가	-8.93015
▁봄	-8.93118
같이	-8.93441
▁스	-8.93527
이네요	-8.93699
▁아무	-8.93736
▁아직	-8.93892
▁들	-8.93902
라서	-8.94317
▁점점	-8.94422
▁전쟁	-8.945
▁네이버	-8.94682
역	-8.94886
▁필요	-8.94896
어서	-8.94909
▁차	-8.94912
장면	-8.9517
▁삼류	-8.95278
감동	-8.95291
▁뭐가	-8.95361
▁초	-8.95361
담	-8.95411
▁발	-8.95487
재미	-8.9567
기는	-8.95677
편이	-8.95768
있고	-8.95807
▁머	-8.95869
또	-8.9618
6	-8.96405
이라도	-8.9642
▁좋네요	-8.9643
거지	-8.96439
ᄋ	-8.96469
▁tv	-8.96514
▁재	-8.9655
것이	-8.96605
▁다큐	-8.96634
할때	-8.9671
OO	-8.96764
▁것은	-8.96999
▁만	-8.97088
없음	-8.97284
뭐	-8.9735
▁더욱	-8.97466
금	-8.97525
망	-8.97526
▁빨리	-8.97582
▁현실	-8.97649
아니	-8.97833
▁(	-8.97848
▁진	-8.97854
▁야	-8.98104
이게	-8.98124
▁재밌는데	-8.98221
▁good	-8.98221
김	-8.98395
▁찾아	-8.98433
▁그닥	-8.98733
▁처음부터	-8.98742
쳐	-8.98796
▁봐야	-8.98954
▁얘기	-8.98991
영화를	-8.99035
8	-8.99208
▁합니다	-8.9926
▁좋겠다	-8.99302
종	-8.99341
▁설정	-8.99379
D	-8.99555
이야기	-8.99623
▁꿀잼	-8.99752
▁유치한	-8.99775
탄	-8.99927
거나	-8.99981
▁한마디로	-9.00062
구요	-9.00114
▁무조건	-9.00183
▁도저히	-9.00201
▁따라	-9.00461
보니	-9.00563
▁엄청난	-9.00571
창	-9.00591
▁엔딩	-9.0066
▁방송	-9.00735
했지만	-9.00775
▁재밌었다	-9.00843
▁전개가	-9.00875
▁이영화는	-9.00908
▁너무너무	-9.01145
이지	-9.01242
▁여기	-9.01469
▁보는데	-9.0153
▁있을	-9.01605
▁다시봐도	-9.01607
▁슬픈	-9.01632
강	-9.01704
▁성	-9.01726
▁울	-9.01736
버	-9.02085
극	-9.02105
▁예전에	-9.02139
▁100	-9.02355
▁않	-9.02484
▁따뜻한	-9.02534
▁서	-9.02716
악	-9.02868
▁비디오	-9.02882
▁중국	-9.02969
▁상	-9.02977
▁어느	-9.03112
▁모르고	-9.03257
▁평	-9.03308
내가	-9.03331
돈	-9.03348
▁없	-9.03382
▁이런영화	-9.0347
▁있어	-9.03551
▁감독은	-9.03584
▁친구	-9.03607
나오는	-9.03639
▁구성	-9.03679
▁없네	-9.03697
▁제목	-9.03711
토	-9.04009
▁원래	-9.0402
▁옛날	-9.04112
▁잼	-9.04135
▁사랑을	-9.04141
▁돈주고	-9.0416
갈	-9.0434
다고	-9.04449
▁평점은	-9.04693
너	-9.04749
7	-9.04814
▁사람들은	-9.04914
▁어릴때	-9.04958
됨	-9.05046
불	-9.05074
▁봤네요	-9.05134
▁재미없어	-9.05149
듯한	-9.0524
▁등	-9.05448
▁높은	-9.0561
볼	-9.05664
입	-9.0567
▁안된다	-9.0573
▁ᄍᄍ	-9.05894
매	-9.06045
▁있음	-9.06119
▁좋은영화	-9.06213
▁존	-9.06381
이었다	-9.06678
양	-9.06699
온	-9.06781
▁그게	-9.06966
▁완벽한	-9.07279
잼	-9.07281
▁모르는	-9.07395
▁이것도	-9.07485
여자	-9.07623
▁전형적인	-9.07817
▁잘못	-9.07839
▁자꾸	-9.07948
년도	-9.08057
액션	-9.08089
다는	-9.08108
해라	-9.08282
▁여주인공	-9.08286
▁지루	-9.08305
▁수가	-9.08536
▁개연성	-9.08613
▁된다	-9.08712
▁헐	-9.08725
년전	-9.08737
봐도	-9.08876
조차	-9.09069
라니	-9.09254
건가	-9.09322
포	-9.09345
체	-9.09371
▁감독님	-9.09393
기도	-9.09403
케	-9.09403
그래도	-9.09421
▁언제	-9.09486
▁아쉬운	-9.09506
▁선	-9.09511
▁성룡	-9.09541
집	-9.09554
▁오래	-9.09641
▁없네요	-9.09661
▁오히려	-9.09687
▁있었다	-9.09782
▁느낄	-9.09961
▁....	-9.10214
▁알았다	-9.10286
▁그리	-9.10478
▁소리	-9.10594
▁물	-9.10615
씬	-9.10847
▁억지로	-9.1086
▁가는	-9.10967
▁좋음	-9.11099
▁볼만	-9.11149
▁낫다	-9.11286
된다	-9.1156
▁총	-9.11708
▁뭔지	-9.11713
달	-9.11727
▁출연	-9.11774
▁예	-9.11786
▁SF	-9.11796
▁평점에	-9.11825
▁너	-9.11829
쓰	-9.11841
스러운	-9.11937
▁80	-9.1194
▁이야기를	-9.11949
나요	-9.11973
것같다	-9.11977
▁인간의	-9.12072
▁우연히	-9.12145
▁해도	-9.12609
글	-9.12681
▁좋았어요	-9.12835
들도	-9.13041
통	-9.13155
▁멜로	-9.13183
치고	-9.13194
년에	-9.13246
에는	-9.1326
▁엄마	-9.13413
▁믿고	-9.13553
▁배우가	-9.13636
▁듯한	-9.1367
겠지	-9.13723
▁아닌가	-9.13916
천	-9.14009
▁딸	-9.14036
d	-9.14238
▁아무것도	-9.14252
▁비슷한	-9.14268
▁액션도	-9.14314
좋은	-9.14533
▁돈이	-9.14539
▁재밌	-9.14655
▁연출이	-9.14672
▁참고	-9.14736
▁볼수	-9.14807
▁지루해	-9.14828
많이	-9.14898
▁부족한	-9.15042
▁말고	-9.15085
▁각본	-9.15108
별로	-9.1521
▁손	-9.15334
▁더럽게	-9.15497
더니	-9.15505
되고	-9.15563
▁파	-9.15578
▁느끼게	-9.15817
▁것이다	-9.15844
▁처음으로	-9.15906
예	-9.15983
9	-9.16173
▁짜증	-9.1634
기만	-9.16348
교	-9.16351
▁특유의	-9.16358
0	-9.16505
▁평가	-9.16509
▁ost	-9.16612
▁재미있고	-9.16635
않	-9.1667
론	-9.16711
▁앞으로	-9.16744
▁똥	-9.16809
기에	-9.16813
▁만들지	-9.16834
남자	-9.1686
▁이상한	-9.16889
▁화이팅	-9.169
▁반전이	-9.16993
▁지금까지	-9.16994
▁모습이	-9.17017
이라니	-9.17054
▁여주	-9.17243
▁망작	-9.17311
▁코메디	-9.17325
거다	-9.17356
▁인	-9.17358
▁알았는데	-9.17449
▁이미	-9.17573
▁!	-9.17605
▁장난	-9.17709
잖아	-9.17738
▁지금도	-9.17741
될	-9.17962
▁물론	-9.18057
절	-9.18063
♡	-9.18536
▁번	-9.18561
▁졸라	-9.18583
▁하면	-9.18747
▁치	-9.19031
▁심	-9.19073
▁재밌어	-9.19178
▁여	-9.19305
▁이런걸	-9.19397
계	-9.19407
▁연	-9.19483
▁힘든	-9.19559
리는	-9.19564
▁유치하고	-9.19608
▁병맛	-9.19734
색	-9.19753
에선	-9.19806
▁극장판	-9.20009
▁어렸을때	-9.20028
▁쳐	-9.20107
▁분	-9.20139
▁굳	-9.20278
~~~~	-9.20334
었는데	-9.20461
▁재미없고	-9.20483
죽	-9.20524
머	-9.20573
▁여배우	-9.20686
▁아이들이	-9.20701
▁흠	-9.2078
▁허	-9.20835
▁영화라	-9.20896
▁입니다	-9.20948
▁장면은	-9.20963
▁괜히	-9.21069
▁지난	-9.2111
_	-9.21123
▁매	-9.21166
▁않음	-9.2136
▁초딩	-9.21432
▁명작이다	-9.21436
▁저도	-9.21519
▁기대하고	-9.2157
▁실제	-9.21622
석	-9.21749
▁힘	-9.21851
▁쓰	-9.21917
나는	-9.21956
▁포스터	-9.22258
▁입	-9.22291
▁간	-9.22368
을때	-9.22436
▁왜이리	-9.22449
▁얼굴	-9.22452
▁유치	-9.2273
▁편	-9.22737
▁ᄒᄒᄒ	-9.22738
▁중에	-9.22751
보다는	-9.22942
릴	-9.23075
소리	-9.23109
이냐	-9.23179
▁아니지만	-9.23275
마지막	-9.23278
▁프랑스	-9.2333
▁나올	-9.23449
▁제작	-9.23469
▁뒤	-9.23472
▁또한	-9.23596
▁그렇고	-9.23648
▁최악이다	-9.23665
:	-9.23684
능	-9.23798
만한	-9.23962
▁왕	-9.23996
▁시간낭비	-9.24055
▁허접	-9.24135
연출	-9.24285
점준다	-9.24378
▁진부한	-9.24383
▁알게	-9.24499
▁어린	-9.2451
같다	-9.24649
기를	-9.24739
▁영화보다	-9.24827
되어	-9.25016
▁동	-9.25185
▁좋았습니다	-9.25294
▁죽	-9.2536
▁낮은	-9.2536
▁재밌었어요	-9.25428
▁화려한	-9.2544
수가	-9.25478
다시	-9.25522
잡	-9.256
▁분위기	-9.25696
▁이런거	-9.25787
대박	-9.25843
정도로	-9.25849
▁쓴	-9.25896
▁눈이	-9.25908
▁스토리에	-9.25951
학	-9.25966
▁좋았고	-9.26043
e	-9.26051
이라면	-9.26089
▁좋	-9.26148
들에게	-9.26272
▁전체적으로	-9.26272
▁백	-9.26301
▁결혼	-9.26406
-_-	-9.26412
▁않을	-9.26466
▁첫	-9.26515
▁최	-9.2661
영화다	-9.26681
었던	-9.26737
▁마음을	-9.2679
좋아	-9.26947
▁있	-9.26973
봐라	-9.27139
하냐	-9.27176
▁~	-9.2723
▁하게	-9.2726
없	-9.27377
이면	-9.27408
했	-9.27478
▁않았다	-9.27573
▁잘봤습니다	-9.27697
▁그런데	-9.27706
점짜리	-9.2775
▁보여준	-9.27759
짐	-9.27765
▁같습니다	-9.27948
▁허접한	-9.27948
▁하는데	-9.27957
▁목소리	-9.28067
▁영화였습니다	-9.28084
▁먼저	-9.28106
했습니다	-9.2811
▁마치	-9.28208
가는	-9.28223
욕	-9.28239
▁대단하다	-9.28264
▁삶을	-9.2827
먹	-9.28274
했어요	-9.28301
봐서	-9.28475
▁보고나서	-9.28477
짓	-9.28554
▁자체	-9.28706
▁나온다	-9.2873
▁이리	-9.28774
▁모습	-9.28807
▁액션영화	-9.28816
슴	-9.28839
▁너무나도	-9.28963
▁못하고	-9.28986
▁귀신	-9.29144
▁감상	-9.29166
별	-9.29167
▁그때	-9.29287
▁드라마를	-9.29453
놓고	-9.29551
▁소재는	-9.29595
▁나만	-9.29632
보다가	-9.29702
역시	-9.29909
▁귀여운	-9.29916
▁정신	-9.29941
강추	-9.30012
▁배경	-9.30044
▁늘	-9.30094
▁왠지	-9.30241
왕	-9.3026
▁시청률	-9.30323
했고	-9.30403
▁졸	-9.30458
▁지금봐도	-9.30556
▁초반	-9.30631
▁공	-9.30715
굿	-9.30797
▁선택	-9.30881
▁다소	-9.30967
설	-9.30975
▁어이없는	-9.31052
▁소설	-9.31075
................	-9.31099
▁머리	-9.31145
추	-9.3118
▁자신의	-9.31191
▁이젠	-9.31311
▁글	-9.31336
▁있다는	-9.31382
특히	-9.31398
▁확실히	-9.31469
▁아닐까	-9.31474
▁저질	-9.31477
한거	-9.3155
간다	-9.31563
▁편집	-9.31618
▁예술	-9.31718
▁첨	-9.31727
▁액션이	-9.31837
▁영상미	-9.31858
보기	-9.31993
니다	-9.32107
▁보이는	-9.32181
▁대한민국	-9.32224
▁흥행	-9.32341
▁개그	-9.32458
▁있었던	-9.32472
▁M	-9.32475
▁이야기가	-9.32476
▁어색한	-9.32581
▁연출력	-9.32595
▁존재	-9.32661
▁이영화가	-9.32677
▁실화	-9.32726
▁나쁜	-9.32773
▁본다	-9.32801
법	-9.32834
길래	-9.32859
▁만족	-9.32904
격	-9.33014
▁매력적인	-9.33019
▁올	-9.33155
▁이런게	-9.33159
▁좋았는데	-9.33255
▁그런가	-9.33288
움	-9.33294
▁부분이	-9.33302
더군요	-9.33338
▁모습을	-9.33343
▁세상에	-9.33355
▁사랑이	-9.33406
▁같네요	-9.33427
침	-9.33499
▁세계	-9.33685
가서	-9.33741
열	-9.33807
▁좋았음	-9.33922
▁깊은	-9.34046
ᅲᅲᅲ	-9.34102
▁감	-9.34126
▁겁나	-9.34183
▁충격	-9.34315
▁없을	-9.34381
▁영화중에	-9.34467
▁여자가	-9.34631
▁함	-9.34716
▁별루	-9.34741
▁두번	-9.34746
▁카메라	-9.34753
명작	-9.34802
보는데	-9.3486
무슨	-9.3494
▁유쾌한	-9.34949
▁감사합니다	-9.34974
▁예상	-9.34995
하여	-9.35028
웃음	-9.35033
▁프로	-9.35182
느	-9.35191
새	-9.35326
▁생각한다	-9.35338
을까	-9.35342
▁순간	-9.35407
▁평론가	-9.35424
업	-9.35463
▁매력이	-9.35563
▁영화에서	-9.35591
테	-9.35629
▁추억	-9.35714
▁했지만	-9.35723
▁느껴지는	-9.35773
스트	-9.35854
▁왜이렇게	-9.35954
할수	-9.3601
▁떨어지는	-9.36075
▁순수한	-9.3611
▁갈	-9.36193
건데	-9.36289
▁내용을	-9.36459
▁별로다	-9.36495
▁라는	-9.36509
▁나를	-9.36556
▁아놔	-9.36601
▁드라마가	-9.36615
표	-9.36709
▁스릴	-9.36728
▁ᄉᄇ	-9.36811
▁대충	-9.36892
▁순	-9.36967
▁리메이크	-9.36973
는건	-9.3701
▁무엇보다	-9.3705
▁내인생	-9.37093
▁불륜	-9.37134
▁작품이	-9.37186
기대	-9.37186
▁복수	-9.37202
▁독립영화	-9.37316
▁든다	-9.3735
▁맞는	-9.37383
▁드는	-9.37439
▁스토리와	-9.37441
^	-9.37455
▁-_-	-9.37515
▁전에	-9.37553
▁서로	-9.37665
▁눈을	-9.37698
▁대작	-9.37699
▁성우	-9.37701
▁의미	-9.37772
~^^	-9.37781
▁OST	-9.3782
▁아니면	-9.37841
▁역시나	-9.37919
투	-9.37963
력	-9.38034
▁비추	-9.38067
▁아름답다	-9.38086
이렇게	-9.38092
▁재미없	-9.38153
친	-9.38157
▁부족	-9.38163
▁나오고	-9.38194
▁처음이다	-9.38359
세요	-9.38553
▁여전히	-9.3861
▁독특한	-9.38743
▁약	-9.38841
▁이정도	-9.38919
▁망	-9.38988
▁마라	-9.39005
▁ᄏᄏᄏᄏᄏ	-9.39019
마다	-9.39022
▁해준	-9.39067
▁잠	-9.39085
▁연기력이	-9.39124
눈	-9.39157
▁새	-9.39203
맨	-9.3931
▁질질	-9.39404
▁좀비	-9.39435
▁사람을	-9.39464
▁15	-9.39509
▁보지마세요	-9.39542
▁아닌데	-9.39546
거냐	-9.39692
속에	-9.3973
▁들어	-9.39864
▁온	-9.3989
▁시절	-9.39898
말이	-9.39945
▁무서운	-9.39953
▁소재를	-9.4004
▁코	-9.40156
▁영웅	-9.40156
순	-9.40221
▁다음	-9.40222
끝	-9.40314
▁나와	-9.40506
▁평범한	-9.40548
▁그의	-9.40549
▁이번	-9.40577
허	-9.40594
▁마무리	-9.40628
▁봤었는데	-9.40674
▁낭비	-9.40724
▁있다면	-9.40768
▁신선한	-9.40832
▁댓글	-9.40882
▁볼때마다	-9.40901
▁재미있음	-9.40916
▁호	-9.40955
▁감정	-9.41041
▁난다	-9.41045
▁킬링타임용	-9.41183
▁카	-9.41206
하니	-9.41307
▁책	-9.41307
▁꿈	-9.41402
▁했던	-9.41434
(?)	-9.41439
ᄏᄏᄏᄏᄏᄏᄏᄏᄏᄏᄏᄏᄏᄏᄏᄏ	-9.41487
▁방	-9.41517
▁<	-9.41529
▁사극	-9.41565
▁슬프다	-9.41802
▁이름	-9.41803
▁이유	-9.41809
▁저렇게	-9.41828
행	-9.41852
a	-9.41986
뻔	-9.42024
▁아름답고	-9.42094
채	-9.42128
▁끝나	-9.42225
▁평생	-9.42418
▁액션은	-9.42425
▁귀엽고	-9.42449
▁이유가	-9.42576
▁실	-9.42589
▁연기에	-9.42663
▁관객	-9.4281
으니	-9.42813
막	-9.42826
▁안되고	-9.42841
▁변	-9.4291
▁지루하지	-9.42966
▁그들의	-9.42978
▁끝나고	-9.43029
좋다	-9.43218
인거	-9.43287
▁역대	-9.43303
▁보는게	-9.43333
▁굳이	-9.43403
브	-9.4351
사람들	-9.43566
▁길	-9.43606
하는거	-9.43642
▁어디	-9.43723
방송	-9.43756
▁나이	-9.43799
▁감동적이고	-9.43844
▁열	-9.43879
승	-9.43902
▁만점	-9.4393
겠지만	-9.44015
▁애들이	-9.44037
▁C	-9.4405
▁남주	-9.44135
▁살짝	-9.44159
▁재밌었는데	-9.44186
▁젤	-9.44297
▁안하고	-9.4444
보면서	-9.44483
▁악	-9.44542
@	-9.44563
▁사랑하는	-9.4458
▁통해	-9.44607
▁기대를	-9.44638
척	-9.44726
였음	-9.44764
▁음악이	-9.44787
셨	-9.44869
▁촬영	-9.44878
치는	-9.44879
놈	-9.44901
▁몰입이	-9.44947
했으면	-9.44972
t	-9.45048
▁보기엔	-9.45057
▁수준이	-9.45151
▁스토리를	-9.45165
▁둘	-9.45191
이제	-9.4524
▁남는다	-9.45358
▁확	-9.45529
▁되어	-9.45555
▁안됨	-9.45613
▁영화이다	-9.45659
▁과연	-9.45668
처음	-9.45849
▁게임	-9.45866
▁로맨틱	-9.45958
▁상영	-9.46364
시간이	-9.46366
▁연기와	-9.46379
거임	-9.46409
증	-9.46422
▁공감이	-9.46644
▁타	-9.46665
▁봐	-9.46782
난다	-9.46913
▁해주는	-9.46989
▁그럭저럭	-9.4702
=	-9.47041
▁나오	-9.47083
전개	-9.47109
▁영화지만	-9.47163
▁있지	-9.47232
▁잘만든	-9.4729
▁추천합니다	-9.47299
▁기분이	-9.4733
▁cg	-9.47455
▁미화	-9.47508
▁외	-9.47545
지금	-9.47551
▁전기세가	-9.47583
▁가진	-9.47606
▁화	-9.4767
▁분명	-9.4768
였던	-9.47692
▁현실을	-9.47714
▁여성	-9.47748
▁만들어진	-9.47761
▁생각합니다	-9.47817
▁잼있게	-9.47914
▁양	-9.47953
근	-9.47964
하는게	-9.47984
▁나왔으면	-9.48071
삼	-9.48087
▁사회	-9.48134
▁프로그램	-9.4817
▁아닌듯	-9.48275
▁b	-9.48321
▁사는	-9.48431
▁열심히	-9.48474
▁까	-9.48474
올	-9.48476
▁처음엔	-9.48506
▁웃음	-9.48533
▁요	-9.4859
▁명	-9.48617
▁만들었다	-9.48628
복	-9.48652
권	-9.48732
▁되었다	-9.48863
배우들	-9.48939
▁짜증나는	-9.48944
▁봤다가	-9.49011
처	-9.49012
▁보고싶다	-9.4902
일까	-9.49079
▁같음	-9.49131
없어	-9.49198
재밌	-9.49257
▁티비에서	-9.49359
▁보시길	-9.4947
▁재미없네	-9.49499
▁아까워	-9.49502
엇	-9.49545
▁주인공의	-9.49557
만으로도	-9.49562
▁같아	-9.49599
▁달	-9.49623
▁더이상	-9.49659
y	-9.49667
있	-9.49715
▁재밌습니다	-9.49748
▁뮤지컬	-9.4981
▁천	-9.49889
▁데	-9.49904
▁많다	-9.49963
▁밑에	-9.50037
▁드라마는	-9.50169
▁아이들	-9.50218
▁다만	-9.50257
이며	-9.50336
▁등장	-9.5041
다면	-9.50489
한번	-9.5052
▁장르	-9.50706
▁이후	-9.50735
▁높다	-9.50736
▁소름	-9.50897
▁줄거리	-9.50909
▁진심으로	-9.50931
▁영화보고	-9.51024
▁현재	-9.51217
▁사랑에	-9.5123
▁예쁜	-9.51252
철	-9.51303
▁봤으면	-9.51321
▁몸	-9.51332
▁재미를	-9.5146
▁생각나는	-9.51488
여서	-9.51589
약	-9.51658
반전	-9.51668
버린	-9.51705
급영화	-9.51707
▁휴	-9.51779
▁남을	-9.51832
백	-9.51972
베	-9.52005
재미없다	-9.52009
▁속편	-9.52073
월	-9.52182
▁긴	-9.52189
억	-9.52211
▁말로	-9.52358
▁볼만함	-9.52373
▁크게	-9.52405
사람이	-9.52461
????	-9.52512
▁이유는	-9.52607
ᄍᄍ	-9.52704
시리즈	-9.52754
퍼	-9.52916
▁연애	-9.52971
것이다	-9.53019
▁이정도면	-9.53054
▁되게	-9.53138
▁아는	-9.53168
▁살아	-9.53171
규	-9.53288
점주는	-9.534
▁한편	-9.53442
▁고민	-9.53479
▁그다지	-9.53489
▁아오	-9.53553
▁리	-9.53563
메	-9.53616
마저	-9.53639
였는데	-9.53698
ᄒᄒᄒ	-9.53713
▁추억의	-9.5386
▁생	-9.5387
딸	-9.53993
하세요	-9.53997
▁필요없다	-9.54034
▁다큐멘터리	-9.54194
나서	-9.54276
▁바보	-9.54301
꼭	-9.54326
▁쉽게	-9.5443
광	-9.54449
진다	-9.54464
▁싫다	-9.54589
▁유치함	-9.54634
▁재미있	-9.54659
▁삶의	-9.54715
들과	-9.54768
▁인정	-9.54771
▁필요없는	-9.54774
▁행복	-9.54788
걸까	-9.54826
▁훨	-9.54858
▁감동과	-9.54906
▁볼수록	-9.54911
▁없지만	-9.5492
▁화면	-9.54953
▁역사	-9.55033
▁어제	-9.55066
▁나중에	-9.55115
▁진행	-9.55156
▁좋았던	-9.55173
감독이	-9.55212
▁나서	-9.55224
▁중간중간	-9.55232
▁그래픽	-9.55266
내요	-9.5527
▁지루해서	-9.55298
▁배우의	-9.55298
▁소재가	-9.55351
되지	-9.55373
▁디즈니	-9.55445
b	-9.55546
분이	-9.55616
▁여러	-9.5562
이에요	-9.55628
▁되지	-9.55629
▁제목이	-9.55705
▁재미있네요	-9.55726
▁정치	-9.55728
▁일본영화	-9.55738
해지는	-9.55745
▁아쉬움	-9.55827
품	-9.5587
▁심리	-9.55982
▁가볍게	-9.56019
평	-9.56047
▁역	-9.56081
▁형	-9.56085
▁좋습니다	-9.56326
▁포	-9.56489
▁엉성한	-9.56524
가지고	-9.56586
▁보고싶은	-9.56605
▁용	-9.56607
적이고	-9.56786
▁그래	-9.56798
▁있나	-9.56827
▁깨	-9.56879
실망	-9.56989
▁나에게	-9.57061
주의	-9.57174
▁감탄	-9.57277
▁;;	-9.57342
▁아빠	-9.57473
▁과거	-9.57484
▁못했다	-9.57503
▁알아	-9.57547
▁가서	-9.57574
▁짜	-9.5763
거같다	-9.57681
▁끝나는	-9.57754
▁질	-9.57758
▁이건뭐	-9.57779
▁언제나	-9.5778
▁12	-9.57828
어야	-9.57893
들어	-9.57945
애니	-9.57989
▁아저씨	-9.58039
▁몰라도	-9.58083
▁글쎄	-9.58092
▁팬	-9.58277
코미디	-9.58393
▁비교	-9.58437
▁ᅮ	-9.58451
하면서도	-9.58456
ᄉ	-9.58516
▁우리가	-9.58553
▁관계	-9.58607
재밌다	-9.58673
▁봐야할	-9.58777
▁잔인한	-9.58798
나온	-9.58807
▁성공	-9.5881
▁좋아서	-9.59026
▁반전도	-9.59078
▁ᄃᄃ	-9.59154
▁힘들	-9.59173
찬	-9.5919
▁몰입	-9.59218
&	-9.59246
일뿐	-9.59294
▁살인	-9.59448
▁영화냐	-9.59452
▁위	-9.59491
▁찍은	-9.59535
▁분들	-9.59602
▁있게	-9.5968
▁만들고	-9.59693
▁아들	-9.59709
▁건지	-9.59715
▁사람의	-9.59828
▁극	-9.59838
▁토	-9.59913
▁그럼	-9.59917
▁슬프고	-9.6009
훈	-9.60111
▁덜	-9.60115
것은	-9.60126
주고	-9.60171
▁싸구려	-9.60345
▁마세요	-9.60467
최악	-9.60494
빠	-9.60513
▁19	-9.60523
으나	-9.60553
▁경찰	-9.60565
▁어릴적	-9.60619
출	-9.60727
▁빠져	-9.6077
▁아이	-9.6082
▁최근	-9.60849
▁하면서	-9.61049
▁범죄	-9.61124
슬	-9.61171
▁좋을	-9.61236
▁청춘	-9.61266
▁않게	-9.61269
▁점수를	-9.61321
▁가끔	-9.61343
께	-9.61369
았	-9.61377
▁정말로	-9.61395
▁올해	-9.61418
준다	-9.61425
▁연출도	-9.61427
▁이제야	-9.61525
▁다시한번	-9.6158
▁70	-9.61631
▁상상	-9.617
▁없나	-9.61703
▁어찌	-9.6173
▁불구하고	-9.61748
▁하네요	-9.61751
드라	-9.61824
▁아깝지	-9.61842
▁있습니다	-9.61883
▁40	-9.61895
음악	-9.61953
으며	-9.62037
▁멋지다	-9.62082
▁음악도	-9.62092
나라	-9.62107
;;;;	-9.62177
▁감성	-9.62211
진심	-9.62261
잉	-9.62352
▁암	-9.62352
▁생애	-9.62384
▁사랑스러운	-9.6242
▁스타일	-9.62423
▁뛰어난	-9.62523
▁표절	-9.62534
거리	-9.62551
속에서	-9.62588
▁방금	-9.6263
▁인생을	-9.62634
▁집중	-9.62668
▁말을	-9.62756
성이	-9.62785
딱	-9.62845
맞	-9.63023
목	-9.63043
는걸	-9.63113
한데	-9.6312
▁평이	-9.63121
▁경	-9.63124
▁만든다	-9.63165
▁재밌네	-9.6318
▁웃기고	-9.63215
▁어려운	-9.63302
▁문	-9.63337
▁급	-9.63368
하긴	-9.63407
합	-9.63412
▁홍콩	-9.63445
▁삶	-9.63471
▁낮아서	-9.63508
린다	-9.63556
ᄀ	-9.63664
도록	-9.6374
▁쫌	-9.63769
▁둘다	-9.63892
까진	-9.63989
▁맞	-9.64064
▁꼴	-9.64073
▁드럽게	-9.64119
환	-9.64126
▁딱히	-9.64229
▁산으로	-9.64301
▁처	-9.64468
츠	-9.64549
▁관람	-9.64563
씨가	-9.64609
▁깊이	-9.64635
▁봣는데	-9.64642
,,,,	-9.64664
▁인물	-9.647
해주는	-9.6472
▁맛	-9.64721
▁죄다	-9.64746
▁표현한	-9.64803
▁천재	-9.64924
▁재밌었음	-9.64973
▁그걸	-9.64974
▁볼만하다	-9.64991
내용이	-9.65035
슨	-9.65055
▁단순	-9.65124
▁흥미진진	-9.65263
ᄆ	-9.65298
▁인간이	-9.65316
▁노출	-9.65341
▁통	-9.65356
하던	-9.65407
던지	-9.65451
습	-9.65545
▁소재로	-9.65684
▁시대	-9.657
▁사랑과	-9.65775
걸로	-9.65798
▁시간을	-9.65825
추천	-9.65846
▁재미있었다	-9.65898
♥♥	-9.6592
리가	-9.65949
▁상황	-9.66
l	-9.66047
▁먹	-9.66063
▁완벽	-9.66084
▁극장	-9.66116
▁어이가	-9.66119
언	-9.66178
▁A	-9.66182
▁병	-9.66244
▁산	-9.66286
네여	-9.66359
▁쓰래기	-9.66362
▁쵝오	-9.66382
▁같	-9.66383
▁되고	-9.66411
▁결말은	-9.66456
▁저예산	-9.66509
혀	-9.66538
덕	-9.66678
▁눈물을	-9.66784
▁힘들다	-9.66817
짜	-9.66832
▁몰입해서	-9.66898
▁아버지	-9.66924
틀	-9.6698
풍	-9.67042
에대한	-9.67088
▁좀더	-9.67114
들아	-9.67131
▁짜증나	-9.67181
씩	-9.67224
▁동화	-9.67258
니깐	-9.67259
▁군대	-9.67264
봣는데	-9.67295
봐야	-9.67317
▁있어요	-9.67333
찍	-9.67334
끼	-9.6735
▁결말도	-9.6756
▁돌려	-9.6757
▁만큼	-9.6763
얘기	-9.67704
r	-9.67765
▁집에서	-9.6781
▁옛날에	-9.67862
▁리뷰	-9.67867
써	-9.67906
▁멍청한	-9.67951
▁완성도	-9.67991
▁메	-9.68015
▁보았다	-9.68025
▁무지	-9.68033
p	-9.68053
만화	-9.68054
▁탄탄한	-9.68114
▁나옴	-9.6821
▁그렇다	-9.68242
있어	-9.68349
▁주제	-9.68374
▁웃긴	-9.68446
작가	-9.68507
인가요	-9.68541
▁괴물	-9.68558
▁부터	-9.68595
▁단순한	-9.68597
▁+	-9.68626
프로	-9.68642
▁예고편	-9.68654
지않	-9.68742
▁희망	-9.68758
년전에	-9.68822
▁느낌을	-9.68834
말고	-9.68867
▁몇번을	-9.68897
쯤	-9.68921
▁뻔하고	-9.6894
▁예전	-9.68953
▁재미없어요	-9.68977
기가	-9.69017
▁현실적인	-9.69051
▁보니까	-9.69059
외	-9.69162
▁하는지	-9.69182
▁답답	-9.6928
련	-9.69311
▁에로	-9.69334
ᄏᄏᄏᄏᄏ	-9.69343
▁흔한	-9.69347
지고	-9.6935
▁떠나서	-9.69378
▁초반에	-9.69401
에겐	-9.69406
▁짓	-9.69529
▁세상	-9.69539
▁악역	-9.69576
▁남자가	-9.69584
▁지금은	-9.69665
▁노력	-9.69677
귀	-9.69714
▁떠나	-9.69755
있음	-9.69771
n	-9.69779
쿠	-9.69886
T	-9.69888
돌	-9.69935
▁시대를	-9.69968
▁않아	-9.69986
▁거지	-9.70054
▁헐리우드	-9.70063
▁독	-9.70097
다른	-9.70259
▁무엇을	-9.70269
이상	-9.7035
▁패	-9.70425
▁이후로	-9.70444
▁!!	-9.70494
▁무섭다	-9.70622
손	-9.7067
▁장면에서	-9.70787
▁설명	-9.70802
지루	-9.70863
▁많	-9.70892
을듯	-9.70917
벌	-9.70956
었	-9.70958
분들	-9.7097
▁배우들도	-9.70985
▁벌써	-9.70999
▁같아서	-9.71043
▁작가가	-9.71048
▁모든게	-9.71058
▁단지	-9.71073
더만	-9.71188
▁고전	-9.71247
▁와우	-9.71322
."	-9.71346
▁어쩔	-9.71415
▁재밋게	-9.71427
▁인기	-9.71436
노잼	-9.71445
▁즐겁게	-9.71492
▁잔잔하고	-9.71538
▁압권	-9.71542
좋고	-9.71554
▁베스트	-9.71571
▁팔	-9.71573
에요	-9.71579
▁레전드	-9.71597
▁않지만	-9.71646
▁말하는	-9.71737
웃	-9.71751
▁생각해	-9.71774
▁현대	-9.71808
▁중간	-9.71839
▁발로	-9.71848
락	-9.71908
▁생각없이	-9.71917
▁누구나	-9.71924
▁작품성	-9.71957
졌다	-9.7224
▁싶네요	-9.72261
▁전달	-9.72268
▁광고	-9.72279
▁버	-9.7229
▁위대한	-9.72338
▁네	-9.72341
▁줌	-9.72419
▁"""	-9.72488
많은	-9.72553
▁재밋다	-9.72585
아깝다	-9.72623
▁돌	-9.72629
▁느끼는	-9.72639
▁죽는	-9.72673
▁한데	-9.72721
▁대단	-9.72771
▁눈에	-9.728
쉬	-9.7285
야지	-9.72859
▁드	-9.72982
▁짱짱	-9.72994
h	-9.73035
▁안보고	-9.73099
내용도	-9.7314
빈	-9.73177
려는	-9.7321
▁유쾌하고	-9.73235
나오	-9.73242
▁수도	-9.73354
▁접	-9.73391
▁젊은	-9.73467
▁알바들	-9.73505
▁보인다	-9.73539
▁북한	-9.73544
▁ᄋᄋ	-9.73566
더라구요	-9.73577
▁읽	-9.73595
▁유명한	-9.73657
▁이런영화가	-9.73681
▁벌	-9.73708
▁삼	-9.73783
독	-9.73852
▁개판	-9.73874
▁속에	-9.73927
점준	-9.73977
▁에휴	-9.7403
▁베	-9.74031
봤던	-9.74039
함을	-9.74044
▁성장	-9.74055
▁여운	-9.74058
▁안타깝다	-9.74188
▁시트콤	-9.74236
▁갑	-9.74322
받	-9.7437
▁맨날	-9.74395
▁생각하고	-9.74402
▁아이돌	-9.74552
▁영화에요	-9.74583
▁웃겨	-9.74635
"""	-9.74646
ᄃᄃ	-9.7466
▁써	-9.74705
▁재밋	-9.74776
차라리	-9.74857
▁높아	-9.7501
▁범인	-9.75042
▁이해할	-9.75096
▁있으면	-9.75153
▁스타	-9.75154
몰	-9.7516
도없고	-9.75165
▁있네요	-9.75185
▁까지	-9.75209
▁섹스	-9.75279
스타	-9.75314
▁빼고	-9.75353
었음	-9.75387
염	-9.75545
▁멋있다	-9.75638
▁느낄수	-9.75649
셔	-9.75664
아님	-9.75672
▁모르겠고	-9.75681
▁필요한	-9.75712
▁현실성	-9.75749
하라	-9.75754
가족	-9.75824
했네요	-9.75828
▁으	-9.75865
▁ᅲᅲᅲ	-9.75867
계속	-9.75873
▁집	-9.76007
▁끌어	-9.76033
▁웃음이	-9.76174
보세요	-9.76221
▁연속	-9.7625
▁대사가	-9.76287
름	-9.76341
▁추	-9.7643
쪽	-9.76449
▁힘이	-9.76454
▁이거보고	-9.76479
▁몸매	-9.76493
▁몰입감	-9.76503
▁시도	-9.76608
▁기본	-9.76706
▁보고나면	-9.76728
커	-9.76767
▁희생	-9.76788
▁무비	-9.76826
▁못할	-9.76851
▁행동	-9.76978
▁울었다	-9.76989
▁음악과	-9.77019
▁작품을	-9.77084
전에	-9.77087
▁보여주	-9.7711
c	-9.77128
▁끝이	-9.77164
결	-9.77195
▁그렇다고	-9.77228
▁그러	-9.77229
▁이쁘고	-9.77282
인것	-9.7735
총	-9.77411
▁즐거운	-9.77423
평점이	-9.7746
▁동물	-9.77461
▁헐리웃	-9.77463
▁꿈을	-9.77493
▁최고입니다	-9.77517
아이	-9.77523
그러	-9.77582
언니	-9.77626
▁개연성이	-9.77635
▁맨	-9.77649
▁당	-9.77686
일본	-9.77755
▁진실	-9.77801
▁없는데	-9.77821
였습니다	-9.77834
▁나라	-9.77845
오빠	-9.77852
▁로봇	-9.77876
리고	-9.77914
▁영화였어요	-9.78057
▁의외로	-9.78111
꼬	-9.78129
▁유치하다	-9.78133
최고의	-9.78134
▁따뜻해지는	-9.78184
▁목	-9.78286
▁미드	-9.78287
▁생각하는	-9.78309
없네	-9.78317
▁에피소드	-9.78335
블	-9.78395
▁그린	-9.78442
▁[	-9.78583
k	-9.78587
▁느와르	-9.78588
▁인생의	-9.78618
▁부분	-9.78638
▁성인	-9.78658
▁제로	-9.78691
범	-9.78703
▁울고	-9.78711
함이	-9.78767
어도	-9.78776
▁비주얼	-9.78868
▁우와	-9.78894
▁일상	-9.78908
▁the	-9.78935
ᄃ	-9.79
다운	-9.79011
번째	-9.79053
숙	-9.79098
▁덕분에	-9.79099
▁지루할	-9.79142
▁인상	-9.79218
▁007	-9.79223
▁아쉽네요	-9.79315
▁재미있었어요	-9.79318
▁싫어	-9.79348
▁담	-9.79486
▁굿굿	-9.79528
땐	-9.79609
하다가	-9.79655
▁이쁘다	-9.79715
갑	-9.79773
▁쩐다	-9.79795
▁해야	-9.7987
▁왜케	-9.79875
▁좋게	-9.79887
▁일이	-9.79892
▁신선하고	-9.80011
ᅡ	-9.80037
스럽다	-9.80052
▁동안	-9.80071
것을	-9.80086
에서는	-9.80118
▁레	-9.80138
▁긴장감도	-9.80165
▁50	-9.80185
연기가	-9.80199
▁호러	-9.80281
20	-9.80281
시킨	-9.80282
▁짝퉁	-9.80284
▁따	-9.80356
▁티비	-9.80381
뜨	-9.80421
▁봤더니	-9.80435
▁작품이다	-9.80473
애들	-9.80511
본다	-9.80628
▁라고	-9.80686
하신	-9.80719
스런	-9.8075
아서	-9.80773
였지만	-9.80793
익	-9.80888
▁모르겠지만	-9.80942
▁조합	-9.81059
▁학교에서	-9.81148
▁지루했다	-9.81167
▁잊혀지지	-9.8119
인생	-9.81284
▁좋지만	-9.81292
는것	-9.81299
▁나오면	-9.81302
각	-9.81369
곡	-9.81397
▁말하고	-9.81424
편보다	-9.81446
존	-9.81468
▁영국	-9.81567
▁묘사	-9.81579
▁작은	-9.81623
싶	-9.81628
▁암튼	-9.81632
▁흥미로운	-9.81637
칠	-9.81665
▁박수를	-9.81668
▁펑펑	-9.81673
▁더불어	-9.81681
하자	-9.81688
▁감정을	-9.81707
만든	-9.81783
i	-9.81805
▁어휴	-9.81935
▁없었던	-9.81972
윤	-9.81997
▁남아	-9.82015
드는	-9.82018
▁자살	-9.82032
▁포장	-9.82083
ᄂ	-9.82104
맛	-9.82125
▁잡	-9.82143
▁용서	-9.82149
▁빼고는	-9.82171
▁어색	-9.82185
▁13	-9.82207
▁스스로	-9.8226
▁퀄리티	-9.82296
놈들	-9.82446
▁귀	-9.82476
같	-9.82496
▁좋았지만	-9.82498
▁부족하다	-9.8257
▁이쁜	-9.82585
▁홍보	-9.82593
▁가지	-9.82601
▁청소년	-9.82607
햇	-9.82636
▁더러운	-9.82649
편을	-9.8267
싶다	-9.82785
한다는	-9.82958
인간	-9.83142
▁않나	-9.83144
▁학교	-9.83171
▁아이가	-9.83178
▁먼	-9.83256
▁끝내	-9.83268
▁사랑의	-9.83275
▁보여	-9.83292
▁리얼	-9.83305
▁사랑은	-9.83387
만이	-9.83424
▁직접	-9.83462
▁주성치	-9.83483
▁동생	-9.83491
▁지루하게	-9.83532
▁간다	-9.83606
공포	-9.83622
되서	-9.83643
▁고생	-9.83651
▁꼬	-9.83738
▁자막	-9.83804
씨의	-9.83809
▁식	-9.83854
▁딴	-9.83914
▁:	-9.83932
▁원작의	-9.83941
▁단연	-9.83969
........	-9.83995
면서도	-9.84101
요즘	-9.84116
▁현	-9.84123
충	-9.84159
▁못해	-9.84336
시절	-9.84344
▁좋았으나	-9.84412
▁김기덕	-9.84451
▁사기	-9.84508
▁보길	-9.84533
좋	-9.8454
▁웃김	-9.8456
▁관	-9.84569
모습	-9.84576
이었음	-9.84679
▁역대급	-9.84679
잇	-9.84682
▁완전히	-9.84683
재밌음	-9.84696
▁의미를	-9.84728
▁손발이	-9.84772
▁뭐라	-9.84796
▁게이	-9.84842
▁웃기	-9.84896
▁누구	-9.84907
▁나쁘지	-9.84925
▁나가	-9.84929
사람은	-9.8497
▁어린이	-9.84976
▁본다면	-9.85015
쇼	-9.85066
▁못한다	-9.85132
▁돌아	-9.85146
▁다룬	-9.85151
▁넘치는	-9.85186
따라	-9.852
재밌게	-9.85285
▁교훈	-9.85287
있게	-9.85289
▁안돼	-9.85295
▁연기력도	-9.85307
▁사건	-9.85323
시키는	-9.85326
향	-9.85349
찌	-9.85384
▁엉망	-9.85453
영상	-9.85467
▁기대했는데	-9.8549
대사	-9.85506
첨	-9.85509
세기	-9.85517
▁남자의	-9.85543
▁없지	-9.85602
▁좋겠어요	-9.85616
▁포기	-9.85628
▁이유를	-9.85633
제발	-9.85634
▁고양이	-9.85654
직	-9.85712
겠네	-9.85714
u	-9.85806
했는지	-9.85813
먼	-9.8589
량	-9.85936
▁잊지	-9.85967
▁실제로	-9.85974
▁영화인듯	-9.86004
▁지나치게	-9.86047
만의	-9.86064
▁18	-9.86069
▁표정	-9.86213
▁게다가	-9.86229
▁쓰레기다	-9.86257
▁유쾌	-9.8635
▁행복한	-9.86353
▁싸이코	-9.86353
▁삶에	-9.86355
▁의심	-9.86374
스릴러	-9.8639
패	-9.86402
깨	-9.86403
▁푹	-9.86409
▁진정	-9.86428
▁이어	-9.86434
에서도	-9.86537
연기도	-9.86554
▁조폭	-9.86734
▁죽은	-9.86739
▁어렸을	-9.86742
▁빈	-9.86742
▁뻔	-9.86748
▁춤	-9.86781
주세요	-9.8685
이니	-9.86891
▁이연걸	-9.86981
▁지구	-9.8702
로써	-9.87024
▁잼있다	-9.87074
▁견자단	-9.87095
▁자유	-9.8711
▁힐링	-9.8717
들만	-9.872
른	-9.87227
▁유머	-9.87234
▁관심	-9.87288
▁느껴진다	-9.87326
이자	-9.87428
▁한계	-9.87434
탈	-9.87441
▁능력	-9.87505
영화중	-9.87567
와는	-9.876
▁보며	-9.87697
▁뿐이다	-9.87702
▁웃	-9.87741
이라서	-9.87751
▁평점보고	-9.87769
▁오바	-9.87887
청	-9.87902
▁밤	-9.87905
▁니	-9.87922
▁좋아해서	-9.87967
▁감동적	-9.87968
▁재밌다고	-9.87993
▁진부하고	-9.88054
그런	-9.88074
필	-9.88099
▁말할	-9.88119
팬	-9.88124
▁똑같은	-9.88153
▁설	-9.88183
▁윤	-9.8823
받고	-9.88239
캐릭터	-9.88294
암	-9.88301
▁반성	-9.88309
▁많고	-9.88326
x	-9.8834
▁보여준다	-9.88344
있는데	-9.88358
▁답답한	-9.88366
▁법	-9.88393
▁조연	-9.88426
▁어머니	-9.8844
▁모르게	-9.88469
▁않을까	-9.88491
와서	-9.88495
하구	-9.88507
▁스케일	-9.88582
▁드립니다	-9.88639
▁중요한	-9.88655
엄마	-9.88662
▁끝난	-9.887
좋아요	-9.88708
▁한참	-9.88728
장면이	-9.88783
▁싶은데	-9.88875
높	-9.88907
▁웃기지도	-9.88927
봤음	-9.88936
곤	-9.88979
영화임	-9.89005
한영화	-9.8901
▁몇몇	-9.89055
▁느끼	-9.89064
▁받아	-9.89073
▁찍	-9.89082
▁잊을	-9.89112
▁폭력	-9.89149
▁하는거	-9.89183
엉	-9.89188
봐요	-9.89192
같음	-9.89206
▁관한	-9.89243
잔	-9.89301
하는지	-9.89328
]	-9.89329
▁회	-9.89337
그래서	-9.8944
▁됨	-9.89526
▁사랑이야기	-9.89527
빵	-9.89528
휴	-9.89541
이걸	-9.89606
▁바람	-9.89657
▁가슴에	-9.89682
▁긴장감이	-9.89898
변	-9.89899
▁우정	-9.89902
▁원작이	-9.89911
▁그림	-9.90058
▁착한	-9.90063
▁잠깐	-9.90071
▁훈훈한	-9.90123
주인공	-9.9016
▁들었다	-9.90199
▁레알	-9.90293
접	-9.903
만들어	-9.9036
▁무섭지도	-9.90505
▁허세	-9.90532
막장	-9.90606
▁의도	-9.9064
▁주인공들	-9.90675
▁질리지	-9.90684
▁감동적이다	-9.9071
▁후반	-9.90737
▁대해서	-9.90764
▁싶어	-9.9085
자가	-9.90997
▁안되	-9.90997
결말	-9.91004
이였다	-9.91044
보이	-9.91083
새끼	-9.91137
▁젠장	-9.91197
밀	-9.91233
▁좋아하는데	-9.91234
▁속에서	-9.9125
▁하나의	-9.91256
시는	-9.91306
▁I	-9.91313
얼굴	-9.9133
S	-9.91341
▁답	-9.9138
▁괜찮은데	-9.91409
▁나오지	-9.91449
지마라	-9.91467
▁그녀의	-9.91485
▁있던	-9.91537
▁달리	-9.91545
▁추억이	-9.91617
▁감동적이	-9.91644
▁그거	-9.91652
▁죽이는	-9.91655
▁재미와	-9.91688
노래	-9.91759
싸	-9.91792
▁개막장	-9.91817
▁한국영화는	-9.91887
▁여기서	-9.91893
탕	-9.91921
▁뒤로	-9.9193
책	-9.91973
▁제작비	-9.92045
▁포르노	-9.92078
▁왠만하면	-9.92101
▁철	-9.92109
▁스트레스	-9.92149
▁많아	-9.92175
▁보려고	-9.92206
나와서	-9.92231
▁허무	-9.92254
C	-9.92284
징	-9.92319
▁사람들의	-9.92334
▁문화	-9.92367
것만	-9.92371
무비	-9.92373
▁전개도	-9.92486
답	-9.92505
있네	-9.92553
▁기대안하고	-9.92563
j	-9.926
부작	-9.9261
▁노답	-9.92637
났다	-9.92665
하려고	-9.92737
▁못함	-9.92772
▁빠	-9.92838
려서	-9.9284
▁탑	-9.92881
▁소중한	-9.92895
적이	-9.92905
▁재밌던데	-9.92909
▁이제서야	-9.92978
▁있는지	-9.93014
▁그렇지	-9.93025
▁우리의	-9.93093
▁없다는	-9.93093
▁웃기다	-9.93109
▁금	-9.9314
하려는	-9.93202
플	-9.93207
▁먹고	-9.9321
▁여행	-9.93231
▁막판에	-9.93236
▁작	-9.93236
▁화가	-9.93247
술	-9.93248
점줌	-9.93404
오늘	-9.93443
!!!!!	-9.93447
▁살고	-9.93532
빨	-9.9354
편도	-9.9355
▁여자들	-9.93567
▁할수	-9.93626
돼	-9.93637
낸	-9.93746
▁감히	-9.9375
▁보여주고	-9.93766
▁점수가	-9.93787
▁부모	-9.93868
▁한심한	-9.93882
▁대화	-9.93886
▁인해	-9.939
▁앞으로도	-9.93901
▁DVD	-9.9391
▁국내	-9.93989
수도	-9.94031
▁만나	-9.94097
▁티	-9.94108
보는내내	-9.94228
▁개뿔	-9.9423
▁자주	-9.94248
▁있었지만	-9.94256
▁투	-9.94345
▁처럼	-9.94365
▁짜증난다	-9.94384
▁작가님	-9.94388
한국	-9.94389
만으로	-9.94489
령	-9.94508
나고	-9.94528
▁모두가	-9.94544
록	-9.94653
한다고	-9.94744
우리	-9.94785
▁할까	-9.94876
성을	-9.94883
OOO	-9.9496
▁황당	-9.94992
▁참으로	-9.94995
▁없어요	-9.95028
▁말도안되는	-9.95087
응	-9.95143
텐데	-9.95163
취	-9.95241
▁심하게	-9.95262
▁잼있어요	-9.95264
▁웃고	-9.95408
▁좋았	-9.9541
▁생각함	-9.95603
▁진리	-9.95604
▁의리	-9.95615
.......	-9.95662
.........	-9.95683
버렸다	-9.9573
정신	-9.95831
▁숨	-9.95949
▁반개도	-9.95956
▁맥	-9.95966
▁어린시절	-9.95994
▁장르가	-9.95996
▁주기	-9.96008
먹고	-9.96067
겠	-9.96095
▁있구나	-9.9611
▁무술	-9.96114
▁보았습니다	-9.96143
얼	-9.96178
님의	-9.96237
▁왜이래	-9.96372
▁자신이	-9.96385
▁설마	-9.96429
▁발견	-9.96433
보자	-9.96447
▁순수	-9.9648
▁우리는	-9.9649
영화로	-9.96567
만드는	-9.96581
▁채널	-9.96665
▁종교	-9.96785
▁아마	-9.96857
▁쩝	-9.96911
▁자연	-9.96945
▁패러디	-9.97039
▁어른	-9.97042
거같은데	-9.9705
있어서	-9.97056
사는	-9.97058
형님	-9.97062
▁보통	-9.97083
▁재미없게	-9.97097
점이다	-9.97113
일이	-9.97134
한듯	-9.97162
년도에	-9.97169
▁본방사수	-9.9722
▁신기	-9.97232
▁영화보면서	-9.9729
▁소녀	-9.97344
▁세상을	-9.97413
▁형님	-9.97427
죄	-9.97437
▁캐릭터가	-9.97459
어떻게	-9.97487
시즌	-9.97489
▁흑인	-9.97509
그리	-9.97674
임에도	-9.97703
▁비디오로	-9.9775
지않고	-9.97767
▁11	-9.978
였	-9.97842
▁깨닫게	-9.97862
영화라고	-9.97931
▁낮	-9.9796
▁영원히	-9.97988
▁소름이	-9.97989
▁못하다	-9.97991
▁않네요	-9.98031
▁크	-9.98043
머리	-9.98079
아닌	-9.98091
▁지나	-9.981
▁거짓말	-9.98123
립	-9.98132
▁도전	-9.98135
▁감동의	-9.98139
f	-9.98151
ᅲᅲᅲᅲ	-9.98208
▁영어	-9.98299
▁카리스마	-9.98376
▁떨어진다	-9.98392
▁아픈	-9.98423
▁빼	-9.9846
▁후반부	-9.98503
하시	-9.98547
g	-9.98577
▁죽는줄	-9.98632
▁관객을	-9.98638
편에	-9.98663
▁망한	-9.98816
▁작품은	-9.98824
▁좋아할	-9.9885
▁생각하면	-9.98892
▁흥미	-9.98923
마지막에	-9.9893
도아니고	-9.98945
가지	-9.98977
▁이해하기	-9.9912
▁할말이	-9.99139
▁명작입니다	-9.99262
▁하나하나	-9.99304
▁기자	-9.99363
지를	-9.99376
▁키	-9.99378
▁무협	-9.9945
감독님	-9.99471
문제	-9.99479
소재	-9.99552
▁위해서	-9.99557
기분	-9.99563
m	-9.99608
▁정도의	-9.99631
▁볼게	-9.99698
고싶다	-9.99717
황	-9.99759
▁그럴	-9.99803
▁배우를	-9.99831
할까	-9.99839
완	-10.0001
▁사진	-10.0005
▁마이클	-10.0007
개도	-10.0009
▁겨우	-10.0016
▁자신을	-10.0017
▁특별한	-10.0027
▁국가	-10.0029
▁팬이	-10.0034
▁척	-10.0035
▁분들은	-10.0043
▁악당	-10.0044
▁생각나서	-10.0048
편의	-10.0049
는건지	-10.0051
송	-10.0051
▁크리스마스	-10.0055
▁조작	-10.0057
▁가치가	-10.006
현실	-10.0066
▁극치	-10.0067
개봉	-10.0074
▁문제가	-10.0078
하지도	-10.0079
▁그건	-10.008
▁있어야	-10.009
A	-10.0091
▁있었는데	-10.0094
▁알겠는데	-10.0095
▁보지마라	-10.0097
▁대놓고	-10.0098
▁바라	-10.0098
▁재밌을	-10.0103
년만에	-10.0111
▁영상이	-10.0112
▁그녀	-10.0116
▁잔뜩	-10.012
▁모험	-10.012
▁만든영화	-10.0123
했네	-10.0129
했나	-10.0133
▁멀	-10.0134
친구	-10.0138
▁다르다	-10.014
▁느꼈다	-10.0142
▁출연진	-10.0144
시간에	-10.0152
▁분위기가	-10.0154
▁쓸	-10.0157
▁싸	-10.0162
▁피해자	-10.0165
▁재난영화	-10.0169
똥	-10.0173
▁갈등	-10.0174
▁잼있	-10.0174
▁아나	-10.018
▁디	-10.0182
더빙	-10.0182
▁훌륭하다	-10.0187
배경	-10.0188
▁민	-10.0192
▁해석	-10.0192
웅	-10.0195
▁죽이고	-10.0197
▁쓰는	-10.0198
▁노래도	-10.0201
동안	-10.0201
▁무엇인지	-10.0202
엇다	-10.0208
줌	-10.0211
▁변태	-10.0215
▁듣고	-10.0216
▁비하면	-10.0217
앗	-10.0218
한게	-10.022
▁쓰레기같은	-10.0221
▁억지스러운	-10.0222
기억	-10.0224
▁죽음	-10.0225
▁연예인	-10.0225
▁슬픔	-10.0225
▁안타까운	-10.023
▁감정이	-10.0231
▁a	-10.0236
좋아하는	-10.024
▁시걸	-10.0243
놓은	-10.0243
▁만들다니	-10.0246
▁친	-10.0251
버리는	-10.0253
▁최근에	-10.0254
빼고	-10.0256
▁최고였다	-10.0257
▁수준의	-10.0257
▁골	-10.0259
▁등등	-10.0261
▁전설의	-10.0261
▁없습니다	-10.0263
▁국민	-10.0265
▁아예	-10.0268
▁이런영화를	-10.027
▁엉성	-10.0272
▁넘어	-10.0275
넹	-10.0277
▁만들면	-10.0278
앙	-10.0283
▁다행	-10.0286
겁니다	-10.0291
솔직히	-10.0293
▁지나도	-10.0298
뭔가	-10.0304
▁받을	-10.0306
▁두고	-10.0308
▁했	-10.0312
자체가	-10.0315
을텐데	-10.032
▁영화관	-10.0321
▁의미가	-10.0321
감독의	-10.0324
▁높게	-10.0327
▁색다른	-10.0329
▁살아가는	-10.0335
▁개연성도	-10.0335
▁빌려	-10.0336
▁우주	-10.0338
▁2014	-10.0348
▁명화	-10.0352
▁모르겠음	-10.0353
▁뜻	-10.0355
▁낚시	-10.0361
▁남은	-10.0363
▁꽝	-10.0365
..;;	-10.037
▁대중	-10.0373
▁이래서	-10.0375
거라	-10.0378
자의	-10.0378
▁싶지	-10.0381
해주세요	-10.0383
때매	-10.0385
▁ᄏᄏᄏᄏᄏᄏ	-10.0385
▁가득	-10.0386
▁전문가	-10.0388
힘	-10.0388
버리	-10.0391
킹	-10.0399
중의	-10.0401
▁자극	-10.0403
▁트	-10.0403
▁나은	-10.0406
▁나머지	-10.041
▁보긴	-10.0414
▁극장가서	-10.042
▁킬링타임용으로	-10.042
▁신선	-10.0426
▁시사회	-10.0428
▁종	-10.0432
▁만한	-10.0435
▁하나같이	-10.0435
하기도	-10.0436
▁아닙니다	-10.0444
▁sf	-10.0444
▁거기에	-10.0448
버리고	-10.0448
▁그저그런	-10.0453
▁뭐하나	-10.0456
▁해라	-10.0463
▁적당	-10.0467
▁씨	-10.0467
▁재미없었다	-10.0475
▁긴장	-10.0476
▁집에	-10.0476
▁만들어도	-10.0483
▁싸움	-10.0483
▁공부	-10.0484
져서	-10.0484
절대	-10.0485
▁여운을	-10.0487
▁명품	-10.0487
▁답답하고	-10.049
v	-10.0495
▁실패	-10.0501
까지는	-10.0505
▁21	-10.0509
낼	-10.0509
짜증나	-10.0509
▁연출과	-10.051
~!!!	-10.0512
떄	-10.0516
▁칼	-10.0517
▁케이블	-10.0518
아니다	-10.0521
▁킬링타임	-10.0526
▁복	-10.053
▁구성이	-10.0531
▁또다른	-10.054
▁외국	-10.0542
▁낚였다	-10.0543
▁블록버스터	-10.0545
▁엉성하고	-10.0546
료	-10.0547
▁출연한	-10.0549
알바	-10.055
▁소소한	-10.0553
아주	-10.0554
공감	-10.0554
▁노래가	-10.0555
▁자신	-10.0557
▁정말이지	-10.0561
었습니다	-10.0566
▁참신한	-10.0571
감이	-10.0573
도대체	-10.0574
껄	-10.0575
▁매력을	-10.0578
▁재미있습니다	-10.058
▁이때	-10.0583
기엔	-10.0585
▁따로	-10.0585
최	-10.0597
▁에로영화	-10.0604
▁태	-10.0607
▁예쁘고	-10.061
▁현실이	-10.0611
▁치고	-10.0614
줘	-10.0618
▁봅니다	-10.062
▁풀	-10.0622
▁시선	-10.0625
튼	-10.0626
▁아줌마	-10.0637
▁일품	-10.0637
▁각	-10.0637
▁낮네	-10.0643
▁가슴을	-10.0648
▁반전은	-10.0648
시켜	-10.0651
로서	-10.0654
원작	-10.0657
▁괜찮다	-10.0659
▁악마	-10.0663
▁낮아	-10.0663
▁아니야	-10.0667
▁결코	-10.0669
▁낮다	-10.0676
▁길게	-10.0681
만큼은	-10.0692
듯이	-10.0693
▁오래된	-10.0695
▁어쩜	-10.0696
▁결말을	-10.0701
던가	-10.0713
▁돈을	-10.0715
살아	-10.0717
▁비판	-10.0718
한건	-10.0718
▁운	-10.0725
▁방영	-10.0726
▁최고임	-10.0728
▁애들은	-10.0738
밥	-10.0742
커플	-10.0749
▁많은데	-10.0753
▁무척	-10.0755
▁밥	-10.0756
누나	-10.0762
▁막장드라마	-10.0767
년작	-10.0769
▁만남	-10.0769
▁먼가	-10.0774
▁싸우는	-10.0777
▁적당히	-10.0779
▁식상한	-10.0782
▁이래	-10.0786
▁빠진	-10.0788
건가요	-10.0797
▁홍콩영화	-10.0799
모든	-10.0802
▁잼나게	-10.0805
▁뭉클	-10.0809
눈물	-10.0812
힌	-10.0812
▁주인공은	-10.0812
하다니	-10.0813
▁데리고	-10.0816
▁헤	-10.0819
▁커플	-10.0831
▁잘봤어요	-10.0833
혜	-10.0847
옥	-10.0847
연기력	-10.085
▁왠	-10.0854
▁옛	-10.0854
▁별로임	-10.0856
▁봤을	-10.0857
영화의	-10.0858
땅	-10.0858
▁공포물	-10.0858
▁졸리	-10.0859
▁코난	-10.0859
▁흐	-10.0872
▁찡	-10.0872
지않는	-10.0872
▁집중해서	-10.0882
려면	-10.0882
▁오버	-10.0884
겠죠	-10.0886
▁D	-10.0886
30	-10.0889
▁아래	-10.0894
▁됩니다	-10.0896
들고	-10.0897
할듯	-10.0898
▁받	-10.0899
▁불러	-10.0911
▁둘이	-10.0912
▁찍어	-10.0912
▁탄탄	-10.0915
▁떠	-10.0921
▁탄생	-10.0926
▁제작진	-10.0933
▁씬	-10.0933
▁해결	-10.0942
것같아요	-10.0943
봤어요	-10.0949
▁군	-10.0951
▁전쟁영화	-10.0951
▁풍자	-10.0954
▁몰랐다	-10.0954
▁ᄋ	-10.0963
▁나왔다	-10.0974
▁살다살다	-10.098
▁보다는	-10.0981
햇다	-10.0981
▁시청	-10.0982
▁다양한	-10.0987
버림	-10.0989
▁만들었는지	-10.0989
사건	-10.0989
재미없음	-10.0995
▁이따위	-10.0996
▁그만큼	-10.0996
▁잔	-10.0998
끝까지	-10.1001
▁황	-10.1001
▁높	-10.1001
▁낮지	-10.1005
▁사이	-10.1007
▁아류작	-10.1009
▁한국에서	-10.1015
▁아무런	-10.1018
▁교	-10.102
▁남네요	-10.1022
였어요	-10.1027
▁기독교	-10.1028
▁생각했는데	-10.1031
▁잘하고	-10.1034
▁이것이	-10.1035
▁사상	-10.1037
듬	-10.1038
▁살면서	-10.1043
▁넌	-10.1048
▁갖고	-10.1052
▁캐	-10.1054
사람들이	-10.1054
▁빼면	-10.106
▁표	-10.1062
▁좋았을	-10.1067
▁볼수있는	-10.107
▁시각	-10.1073
라이	-10.1074
▁아직까지	-10.1083
▁남녀	-10.1094
▁한마디	-10.1096
▁욕망	-10.1097
설정	-10.11
▁내려	-10.1104
▁수많은	-10.1108
▁청	-10.1108
▁앞	-10.1108
받는	-10.1117
인건	-10.1122
▁스토리의	-10.1126
▁괜찮	-10.1127
▁살린	-10.1129
점대는	-10.1131
▁바랍니다	-10.1132
▁죽여	-10.1134
▁책을	-10.1137
▁이상하게	-10.1138
▁그자체	-10.1139
▁놀랍다	-10.1144
▁짧은	-10.1148
▁신파	-10.1153
했을	-10.1156
었지만	-10.1161
▁핵노잼	-10.1164
▁보기에는	-10.1169
대는	-10.1172
사회	-10.1174
였고	-10.1175
해준	-10.1181
♥♥♥	-10.1196
▁뭘까	-10.1201
▁분노	-10.1208
▁국	-10.1209
▁최고로	-10.1219
견	-10.1219
렌	-10.122
▁가면	-10.1221
링	-10.1225
▁놀라운	-10.1225
▁몰입도가	-10.1229
▁궁금하다	-10.1229
▁임	-10.1232
▁c	-10.1238
조금	-10.124
▁플롯	-10.1243
▁죽을	-10.1243
시작	-10.1244
▁특수효과	-10.1246
▁한국인	-10.1248
봉	-10.1251
▁영화보는	-10.1256
▁안맞는	-10.126
E	-10.1264
공포영화	-10.1265
▁여주가	-10.1268
으론	-10.1269
▁망친	-10.127
▁이야기는	-10.1272
▁내가본	-10.1273
▁주제를	-10.1274
보지	-10.1278
▁섹시	-10.1281
▁놓고	-10.1282
▁주기도	-10.1284
▁개봉한	-10.1286
▁교훈을	-10.1289
자나	-10.129
▁마이너스	-10.129
분은	-10.1297
▁발전	-10.1297
▁부분도	-10.1303
▁연기력은	-10.1306
▁다운	-10.1308
재밋	-10.1313
았다	-10.132
욱	-10.1321
▁빵점	-10.1322
▁꽤나	-10.1326
▁하네	-10.133
▁본영화	-10.1332
왔	-10.1333
인이	-10.1334
▁꺼	-10.1339
▁없었	-10.1345
나와	-10.1351
▁눈빛	-10.1353
부족	-10.1353
▁끌	-10.1353
▁정의	-10.1354
▁대부분	-10.1356
▁않아서	-10.1362
만들	-10.1366
제목	-10.1368
▁어울리는	-10.1369
되면	-10.1369
▁격	-10.1369
▁송	-10.1371
쓰고	-10.1372
▁형사	-10.1379
▁넘게	-10.1381
계의	-10.1382
▁불쌍하다	-10.1383
▁심지어	-10.1384
ing	-10.1391
▁사고	-10.1394
▁마지막까지	-10.1395
▁좋겠네요	-10.1397
▁아쉽지만	-10.1402
▁풀어	-10.1405
▁예쁘다	-10.1409
▁받는	-10.1409
배우들의	-10.1419
▁자체는	-10.142
쓴	-10.1422
예요	-10.1425
▁손에	-10.1425
▁캬	-10.1428
▁재미도없고	-10.143
갔다	-10.143
보다도	-10.143
있나	-10.1434
둘	-10.1438
거같음	-10.1444
랄까	-10.1444
▁명작을	-10.1444
▁보지마	-10.1445
▁했으면	-10.145
모두	-10.145
관계	-10.1454
er	-10.1463
▁반드시	-10.1467
명의	-10.1469
▁봤을까	-10.1473
▁정작	-10.1475
▁가벼운	-10.1476
▁내용과	-10.1479
▁어느정도	-10.148
가고	-10.1486
▁ᄀ	-10.1487
▁외계인	-10.15
지루함	-10.15
▁포스터가	-10.1501
▁취향	-10.1509
▁반복	-10.151
▁애기	-10.1514
▁불편한	-10.1514
▁첫사랑	-10.1515
▁소설을	-10.1515
▁미래	-10.1517
▁시청률이	-10.1518
▁쓰고	-10.152
▁엔딩이	-10.152
▁있다니	-10.1522
▁약간의	-10.1524
▁혹은	-10.1524
▁역사를	-10.1525
▁아까웠다	-10.1527
▁하루	-10.1528
명이	-10.1528
▁아깝	-10.153
▁생각으로	-10.1533
▁떨어지고	-10.1535
▁터	-10.1539
득	-10.1545
▁감사	-10.1553
는것도	-10.1554
▁참신	-10.1555
▁시리즈는	-10.1555
▁바다	-10.1559
▁처음에는	-10.1565
▁외모	-10.1567
했어	-10.1568
님이	-10.157
on	-10.1573
겟다	-10.1577
▁차이	-10.1579
잠	-10.1581
▁인간들	-10.1583
째	-10.1588
하시는	-10.1593
골	-10.1593
▁소재도	-10.1594
▁할머니	-10.1595
▁아름답게	-10.1597
것같은	-10.1599
▁친구가	-10.1599
▁어설프고	-10.1599
▁갔	-10.1601
갑니다	-10.1604
없어서	-10.1606
▁만들수	-10.161
▁원작에	-10.1611
▁그야말로	-10.1626
▁그립다	-10.1626
▁한편의	-10.1627
▁아까운영화	-10.1637
▁태어나서	-10.1637
팔	-10.164
▁다시는	-10.1647
에서의	-10.1648
▁홍	-10.1651
▁당신은	-10.1653
▁무서워	-10.1656
▁짜증나서	-10.1658
▁유명	-10.1661
▁한국의	-10.1662
▁1,2	-10.1663
▁남편	-10.1669
?!	-10.1679
▁귀여워	-10.168
▁영화들	-10.1686
또한	-10.1687
▁로그인	-10.1688
▁보자	-10.1689
▁보던	-10.1694
..........	-10.1703
낮	-10.1704
▁본게	-10.1707
ᄅ	-10.1712
표현	-10.1714
▁짜증만	-10.1729
▁강렬한	-10.173
▁아름다움	-10.1731
▁유일한	-10.1731
화이팅	-10.1732
▁효과	-10.1734
▁하나로	-10.1734
▁쓸데없이	-10.1734
▁교육	-10.1735
▁당연히	-10.1736
▁일부러	-10.1736
▁들고	-10.1737
랄	-10.174
였어	-10.1743
스토리도	-10.1744
▁나름대로	-10.1745
안에	-10.1747
하길	-10.1747
▁장국영	-10.175
▁느낌의	-10.175
▁어른이	-10.1751
▁싶	-10.1751
▁대본	-10.1752
▁해피엔딩	-10.1754
▁이딴걸	-10.1763
▁첨엔	-10.1765
족	-10.1766
거죠	-10.1769
▁이미지	-10.1771
▁어렵다	-10.1772
▁강한	-10.1776
▁채	-10.1776
ᄋᄋ	-10.1779
자는	-10.1795
▁받은	-10.1796
▁희망을	-10.1796
▁한번도	-10.1798
▁상상력	-10.1802
▁많은걸	-10.1804
▁실력	-10.1805
▁취	-10.1809
▁선물	-10.1811
▁하는게	-10.1812
▁존경	-10.1812
시길	-10.1815
▁감동은	-10.1817
▁처음에	-10.1828
▁T	-10.1839
▁of	-10.1841
기위해	-10.1844
▁야동	-10.1845
▁멋있	-10.1849
빨리	-10.185
▁코미디영화	-10.1853
뜻	-10.1856
냐고	-10.1857
*	-10.186
▁괜찮았다	-10.186
▁유일하게	-10.1861
힐	-10.1863
부분이	-10.1867
▁가치	-10.1868
▁/	-10.187
▁승리	-10.1872
▁필름	-10.1872
▁장면도	-10.1874
▁배우들은	-10.1875
▁있네	-10.1876
▁심형래	-10.1877
▁모든걸	-10.1877
▁여자의	-10.1888
있을	-10.1891
나오고	-10.1895
이었던	-10.1899
▁ᄍᄍᄍ	-10.19
▁체	-10.1901
▁역할	-10.1901
▁수작이다	-10.1903
▁시간아깝다	-10.1903
났	-10.1905
효	-10.1908
▁소재와	-10.1909
▁재미없어서	-10.1911
▁낮게	-10.1915
▁핵	-10.1922
하기만	-10.1923
▁아니지	-10.1927
▁미모	-10.193
▁연결	-10.1932
▁음식	-10.1934
▁영상과	-10.1935
▁모를	-10.1937
엄	-10.1944
▁본지	-10.1944
//	-10.1949
특	-10.1949
▁경험	-10.195
▁볼거리	-10.195
오는	-10.1955
따위	-10.1958
ᅲᅮ	-10.1963
▁꽃	-10.1964
▁그것	-10.1969
▁비밀	-10.1975
▁괜찮음	-10.1976
쓰레기영화	-10.1976
▁이상하고	-10.1978
▁나에겐	-10.1978
봤지만	-10.1978
▁내생에	-10.1984
▁dvd	-10.199
엘	-10.1993
▁뱀파이어	-10.1996
전쟁	-10.1997
▁따뜻하고	-10.2
▁새벽에	-10.2003
▁보다니	-10.2004
▁웃으면서	-10.2006
▁미소	-10.2009
▁몇번	-10.2014
▁케이블에서	-10.2015
좋음	-10.2016
▁재미로	-10.202
▁별로고	-10.2023
▁요리	-10.2026
봅니다	-10.2032
거같아요	-10.2034
▁할아버지	-10.2035
지말고	-10.2037
▁많아서	-10.2043
학년	-10.2044
개그	-10.2045
▁오락영화	-10.2053
▁가족이	-10.2058
재밌어요	-10.2063
▁봐야하는	-10.2064
▁알수	-10.2068
영화에	-10.2068
였으면	-10.207
▁남겨	-10.2077
▁봤네	-10.2081
▁하다가	-10.2087
▁썩	-10.2089
▁어이	-10.209
▁맞아	-10.2091
용으로	-10.2092
▁폭	-10.2093
웠	-10.2094
▁흐르는	-10.2095
▁결	-10.2095
▁인도	-10.2099
▁착각	-10.21
▁울리는	-10.2104
▁뭐니	-10.2107
장르	-10.2108
▁본거	-10.2108
▁이소룡	-10.211
가요	-10.2111
탓	-10.2113
그래	-10.2114
▁주제가	-10.2116
시나리오	-10.2126
걍	-10.2127
젤	-10.2127
▁혹시	-10.2132
▁아깝고	-10.2136
▁돋보이는	-10.2139
신고	-10.2144
▁이하	-10.2144
게임	-10.2147
▁곧	-10.2148
▁뇌	-10.2149
▁다시보니	-10.2156
▁월	-10.2157
▁영화인지	-10.2163
▁자식	-10.2165
이름	-10.2166
▁잤다	-10.2167
미국	-10.2168
▁보이	-10.2171
▁재밌어서	-10.2174
▁하아	-10.2179
력이	-10.2179
▁현실과	-10.2187
▁명작이	-10.2188
▁이상의	-10.2189
나옴	-10.2189
O	-10.2192
페	-10.2193
나게	-10.2197
꾸	-10.2198
▁광	-10.2198
▁=	-10.2199
▁아쉬움이	-10.2201
▁느낀	-10.2205
사가	-10.2205
▁재밋어요	-10.2207
▁영화인가	-10.221
▁가정	-10.221
▁이런건	-10.2215
▁기술	-10.2216
▁투자	-10.222
일듯	-10.2223
▁기가	-10.2224
롱	-10.2224
스러움	-10.2225
▁배트맨	-10.2231
▁할리우드	-10.2231
▁중에서	-10.2236
▁멋	-10.2238
속의	-10.224
많	-10.2241
▁이쁘	-10.2242
▁장면을	-10.2248
▁조니뎁	-10.2252
▁다운받아	-10.2254
꿀잼	-10.2256
..^^	-10.2257
▁제목만	-10.2258
▁숨겨진	-10.2259
▁싶을	-10.226
▁머리가	-10.226
안되	-10.226
온다	-10.2261
었어요	-10.2263
▁의문	-10.2267
▁하길래	-10.2268
스럽고	-10.227
▁대통령	-10.2271
▁빛	-10.2273
▁잘못된	-10.2274
▁시간만	-10.2275
▁추리	-10.2279
▁가수	-10.2284
▁됐	-10.2285
▁삶이	-10.2286
▁그려	-10.2287
▁틀	-10.2287
으면서	-10.2288
▁들어가	-10.229
▁영화인	-10.229
▁마음으로	-10.229
▁열정	-10.2292
▁없었음	-10.2297
하는건	-10.2297
▁이해를	-10.23
▁무언가	-10.2302
▁엄마가	-10.2307
해진	-10.2307
▁초딩때	-10.2309
▁짜증이	-10.2312
▁최고의영화	-10.2313
십	-10.2317
씬은	-10.2317
이든	-10.2319
▁싶어요	-10.2324
or	-10.2325
▁감독을	-10.2327
▁영환데	-10.2327
▁^	-10.2333
--	-10.2342
▁뒷	-10.2347
▁남자주인공	-10.2349
▁환상	-10.235
▁나네요	-10.2352
점정도	-10.2354
줬	-10.2358
▁울컥	-10.236
▁짠	-10.2363
ᅥ	-10.2364
▁줍니다	-10.2364
▁업	-10.2365
▁맛이	-10.2366
▁단어	-10.2368
겠어요	-10.237
▁세상이	-10.2374
▁교과서	-10.2378
▁60	-10.2383
▁나랑	-10.2383
▁모르	-10.2386
▁언제봐도	-10.2389
▁가족영화	-10.239
엔딩	-10.2392
▁웬	-10.2392
▁단순히	-10.2393
싱	-10.2394
▁재밌었	-10.2396
▁시간가는줄	-10.2396
▁짝이	-10.2397
▁클레멘타인	-10.2398
시고	-10.2399
▁마약	-10.24
▁아니라고	-10.2401
▁안간다	-10.2402
보니까	-10.2404
되었다	-10.2408
▁술	-10.2415
엿	-10.2416
▁뛰어	-10.2417
▁어색하고	-10.2419
함과	-10.242
▁잭	-10.2424
!!!!!!!!!!!!!!!!	-10.2428
▁얼굴이	-10.2431
▁아냐	-10.2435
▁반전을	-10.2438
있지	-10.2438
▁s	-10.2439
▁맞지	-10.2444
▁색	-10.2446
▁찾는	-10.2447
것들	-10.2451
▁삼류영화	-10.2452
하지마라	-10.2461
율	-10.2462
▁불쌍한	-10.2468
▁ᄏᄏᄏᄏᄏᄏᄏ	-10.2468
▁있다고	-10.2469
▁좀비영화	-10.2472
▁멋있는	-10.2474
▁후속작	-10.2477
▁배우는	-10.2484
▁배우도	-10.2485
이여	-10.2485
여주	-10.2491
▁어릴	-10.2495
팅	-10.2499
재미도	-10.2499
▁로버트	-10.2499
▁희대의	-10.2499
북	-10.2508
▁제임스	-10.251
봤네요	-10.251
으니까	-10.2513
▁다르게	-10.2518
▁러시아	-10.2519
▁떨어짐	-10.2521
▁유치해	-10.2524
순간	-10.2524
나올	-10.2525
▁사운드	-10.2527
▁얼	-10.2531
▁터미네이터	-10.2537
▁궁금	-10.2539
▁모르겠네요	-10.2548
▁개노잼	-10.2549
▁시리즈중	-10.2551
극장에서	-10.2554
▁멋지고	-10.2557
▁붙	-10.2558
번은	-10.2563
▁지겹다	-10.2563
▁짜증남	-10.2564
▁한심	-10.2565
부분	-10.2565
▁없나요	-10.2567
이해	-10.2567
▁잼있음	-10.2569
분을	-10.2574
했다는	-10.2593
▁루	-10.26
씨는	-10.26
%	-10.2609
▁안봐도	-10.261
▁중반	-10.2615
▁놈	-10.2616
▁생활	-10.2621
▁그것도	-10.2627
내고	-10.2628
▁전체	-10.263
▁받았	-10.2634
끈	-10.2635
▁아이들과	-10.2635
▁러닝타임	-10.2636
▁실험	-10.2636
▁봤다면	-10.2638
▁판단	-10.2639
▁이토록	-10.2644
▁폴	-10.2648
▁야한	-10.2648
▁이름이	-10.2652
홍	-10.2652
▁높아서	-10.2654
▁배경이	-10.2655
하겠다	-10.2655
▁재밋음	-10.2666
▁권	-10.2669
▁알겠다	-10.267
▁오브	-10.2671
`	-10.2672
분만에	-10.2673
캐스팅	-10.2674
해진다	-10.268
세계	-10.2682
이후	-10.2685
▁봐도봐도	-10.2689
▁이뻐서	-10.269
이영화	-10.2692
▁매일	-10.2695
▁그동안	-10.2695
▁논리	-10.2695
▁여주인공이	-10.2696
▁사투리	-10.2697
▁커	-10.2698
내용은	-10.2699
▁잠이	-10.2701
▁달라	-10.2703
▁이런영화는	-10.2703
▁안습	-10.2707
스타일	-10.2713
끄	-10.2717
▁실화를	-10.2719
문화	-10.2719
▁나왔	-10.2724
이죠	-10.2728
▁빵	-10.2729
▁무시	-10.2738
▁보기에	-10.2741
▁먹는	-10.2746
높은	-10.2749
▁예능	-10.2749
ᅵ	-10.2753
풀	-10.2753
▁연극	-10.2758
▁메세지	-10.2759
▁갑니다	-10.2761
▁부부	-10.2763
▁내용인지	-10.2767
▁귀엽	-10.2771
▁한번쯤	-10.2773
▁말자	-10.2773
▁도무지	-10.2776
▁사람도	-10.2776
▁디워	-10.2777
▁믿을	-10.2778
못하고	-10.2781
착	-10.2783
▁같고	-10.2789
▁설정이	-10.2793
생각이	-10.2794
하려	-10.2795
▁받고	-10.2795
쳤	-10.2798
검	-10.2799
▁끝에	-10.2805
인데도	-10.2807
▁없게	-10.2814
보게	-10.2815
▁배역	-10.282
▁궁금해서	-10.2823
지지	-10.2824
인의	-10.2826
영화인데	-10.2826
후회	-10.2829
멜로	-10.2837
제대로	-10.2838
▁짜증나고	-10.284
▁하지원	-10.2843
해야지	-10.2846
끝나	-10.2852
▁연출은	-10.2854
좋은영화	-10.2858
재밌어	-10.286
▁작품입니다	-10.2861
▁이것	-10.2869
▁집착	-10.2873
늘	-10.2875
봣	-10.2883
했으나	-10.2883
으로써	-10.2888
껏	-10.2891
혁	-10.2897
▁재미있어	-10.2897
▁조절	-10.2905
▁식상	-10.291
버릴	-10.2912
꾼	-10.2914
▁왤케	-10.2916
렁	-10.2916
▁재개봉	-10.2918
▁괜찮았는데	-10.2918
▁시대에	-10.2927
▁알았	-10.2931
▁컴퓨터	-10.2931
▁봤을때	-10.2933
▁아놀드	-10.2935
느라	-10.2939
▁미안	-10.2939
▁영상미가	-10.2943
▁허술한	-10.2945
▁하정우	-10.2945
▁생각도	-10.2948
켜	-10.2948
▁공짜로	-10.295
▁전설	-10.2951
곳	-10.2952
과는	-10.2953
든다	-10.2954
▁풍	-10.2955
▁2000	-10.2958
▁정신병자	-10.2964
15	-10.2969
▁폭발	-10.2975
▁아쉽	-10.2976
▁철학	-10.298
▁탈출	-10.2984
▁무섭	-10.2984
▁열연	-10.2987
▁인생에	-10.2989
로만	-10.2993
▁시원	-10.2993
▁여자는	-10.2996
웃겨	-10.2997
▁가고	-10.3011
구성	-10.3015
보구	-10.3016
▁집중이	-10.302
▁창	-10.3022
▁슬프	-10.3024
▁가능한	-10.3026
는거야	-10.3026
않고	-10.3035
▁S	-10.3037
짝	-10.3038
▁담배	-10.3039
으로서	-10.3043
▁일본은	-10.3044
션	-10.3048
▁아들이	-10.3048
▁앞에	-10.3048
잇는	-10.305
셀	-10.3055
혹	-10.3057
▁you	-10.3058
▁개인	-10.3059
▁보게된	-10.306
▁각색	-10.3062
▁잔잔하게	-10.3062
▁대신	-10.3063
▁무엇인가	-10.3065
같고	-10.3065
▁최고봉	-10.3069
▁제이슨	-10.3075
▁소중함을	-10.3075
햇는데	-10.3076
쥐	-10.3076
▁탈	-10.3078
▁전쟁의	-10.308
▁볼만했다	-10.308
▁기대없이	-10.3082
▁쓸데없는	-10.3085
▁나레이션	-10.3085
와의	-10.3087
▁지금의	-10.3088
B	-10.3088
▁전작	-10.3093
▁뜨	-10.3095
▁평론가들	-10.31
값	-10.3101
있었다	-10.3109
▁잘하는	-10.3112
I	-10.3112
▁빛을	-10.3114
▁적어도	-10.3115
더라면	-10.3116
▁뭥미	-10.3123
▁사실을	-10.3127
▁여러분	-10.3128
▁담은	-10.313
▁가득한	-10.3133
▁오빠	-10.3139
▁결론은	-10.3149
▁좋다고	-10.3151
▁일본의	-10.3151
▁귀엽다	-10.3158
분의	-10.3159
w	-10.3164
▁잊고	-10.317
▁어쩔수	-10.3175
▁없냐	-10.3176
▁히어로	-10.3177
▁!!!	-10.318
사람들은	-10.3181
못하는	-10.3183
이었습니다	-10.3183
시다	-10.3187
혼	-10.3187
▁인생이	-10.319
짜증	-10.3192
▁일반	-10.3194
상황	-10.3198
▁성격	-10.3198
과의	-10.32
▁돼	-10.3201
겠습니다	-10.3203
▁아까울	-10.3205
연기는	-10.3209
▁디테일	-10.3209
▁않았지만	-10.321
▁믿고보는	-10.3211
▁결론	-10.3211
▁유쾌하게	-10.3214
▁명대사	-10.3214
▁좋네	-10.3215
영화입니다	-10.3216
▁봤는데도	-10.3221
12	-10.3226
했지	-10.3234
▁인간은	-10.3238
▁재미있을	-10.324
▁아역	-10.3241
▁안에	-10.3242
▁호구	-10.3243
▁오랫만에	-10.3247
▁우뢰매	-10.3248
하거나	-10.325
▁블랙	-10.325
▁으리	-10.3251
▁의상	-10.3254
▁어울리지	-10.3255
▁돈내고	-10.3255
▁영화라니	-10.3256
▁뒤에	-10.3258
하진	-10.3258
▁슈퍼	-10.3258
붙	-10.326
▁만약	-10.3262
▁자극적인	-10.3263
개인적으로	-10.3263
▁정도면	-10.3265
▁되네요	-10.3268
아무리	-10.3269
배우가	-10.3272
▁맘	-10.3273
류영화	-10.328
지않은	-10.3283
▁죽고	-10.3288
▁만난	-10.329
▁안나	-10.329
▁톰	-10.3294
▁재미없다고	-10.3296
▁사랑해	-10.3296
▁만들었나	-10.33
필요	-10.3302
▁한국영화의	-10.3303
존나	-10.3303
▁영화화	-10.3305
▁황당한	-10.3307
▁찍고	-10.3312
▁떨	-10.3312
▁명불허전	-10.3313
▁타고	-10.3318
▁본건데	-10.3323
장난	-10.3325
에만	-10.3331
▁봐야지	-10.3335
▁분들이	-10.334
▁포스터에	-10.3342
▁의사	-10.3345
아저씨	-10.3346
▁명복을	-10.3351
▁동시에	-10.3351
▁절정	-10.3358
▁시나리오가	-10.336
▁내생애	-10.3363
두고	-10.3364
▁일부	-10.3365
극장	-10.3366
▁서울	-10.3366
▁매미	-10.3367
재미없	-10.3371
▁만들어서	-10.3372
런	-10.3373
▁장면들	-10.3375
졸	-10.3377
▁장난하냐	-10.3377
▁좋을듯	-10.3378
흐	-10.3379
▁이보다	-10.3384
줘야	-10.3384
▁확인	-10.3389
▁기대이상	-10.3389
▁살인마	-10.339
▁보았는데	-10.3395
▁모른다	-10.3397
▁영화였음	-10.3397
어라	-10.3397
▁인형	-10.3397
▁자동차	-10.3406
좋았다	-10.3407
▁아깝네	-10.3408
클	-10.3408
마음	-10.3411
싸움	-10.3414
상을	-10.3414
바람	-10.3414
이어서	-10.3416
스토리가	-10.3419
▁짐	-10.3423
할만한	-10.3424
하더라	-10.3426
▁목소리가	-10.3428
버려	-10.3441
▁느	-10.3441
씀	-10.3442
그러나	-10.3452
안됨	-10.3452
▁인상적	-10.3454
▁해리포터	-10.3457
▁등장인물	-10.3457
▁사랑해요	-10.3457
▁히	-10.3458
▁과장	-10.3459
▁느낌은	-10.3461
▁쉬	-10.3462
▁보시면	-10.3465
▁안볼	-10.3467
▁생에	-10.347
람	-10.347
▁땜에	-10.3472
는듯	-10.3474
지가	-10.3474
▁꾸	-10.3484
▁주변	-10.3485
▁최소	-10.3488
층	-10.3489
▁찍는	-10.3489
▁에이	-10.3494
▁읽고	-10.3496
▁느껴	-10.3498
▁전반적으로	-10.3501
▁좋았을텐데	-10.3501
▁난리	-10.3502
▁고통	-10.3505
대가	-10.3506
▁돌아가	-10.3506
~~!!	-10.351
였나	-10.3511
▁땅	-10.3513
▁가까운	-10.3516
분동안	-10.3518
▁탄탄하고	-10.352
소설	-10.3521
▁혼	-10.3521
▁아깝네요	-10.3522
▁재미있는데	-10.3527
▁소화	-10.353
▁Good	-10.3531
▁액션과	-10.3531
간의	-10.3532
하던데	-10.3535
▁기적	-10.3536
▁매력에	-10.3537
▁독일	-10.3538
▁반대	-10.3539
▁다시보고	-10.354
▁포스터만	-10.3542
▁어처구니	-10.3543
세상	-10.3544
▁믿	-10.3544
▁생각할	-10.3544
▁한국판	-10.3545
▁야구	-10.3545
▁콩	-10.3546
▁연기자	-10.3551
▁축구	-10.3551
▁어쩌면	-10.3552
▁그것이	-10.3555
▁초등학생	-10.356
▁주말	-10.356
▁볼때	-10.3567
코믹	-10.3567
▁시작부터	-10.3568
유치	-10.357
그럼	-10.3572
▁공감할	-10.3572
딩	-10.3573
긴한데	-10.3577
▁짜집기	-10.3581
▁명연기	-10.3581
▁무섭고	-10.3586
놓	-10.3595
보인다	-10.3596
▁합	-10.3598
▁없으면	-10.3598
본영화	-10.36
▁개성	-10.3601
19	-10.3607
▁당시에	-10.3608
리스	-10.3608
식으로	-10.3608
...........	-10.3611
▁달려	-10.3611
▁홍상수	-10.3617
▁전개와	-10.3623
▁시간에	-10.3633
▁흐름	-10.3634
라는걸	-10.3637
▁로코	-10.3639
▁넣	-10.3639
▁판	-10.364
▁교훈도	-10.3645
가며	-10.3647
▁듭니다	-10.3652
▁박진감	-10.3657
▁보고싶	-10.3658
▁만들어낸	-10.3663
누	-10.3668
물이	-10.367
스터	-10.3671
▁:)	-10.3674
▁은근히	-10.3674
z	-10.3676
▁정우성	-10.3676
▁보내	-10.3677
▁친구랑	-10.3678
▁초등학교	-10.3679
▁영화라는	-10.3681
▁풍경	-10.3683
▁깡패	-10.3683
에대해	-10.3685
▁왜곡	-10.3686
▁싶었다	-10.3688
▁좋지	-10.369
나온다	-10.3691
▁낫	-10.3692
먹는	-10.3692
밤	-10.3692
▁갠적으로	-10.3694
▁명장면	-10.3694
▁생각난다	-10.3695
할뿐	-10.3698
▁파괴	-10.3701
▁이런류의	-10.3707
있던	-10.3709
▁제목을	-10.3714
ᄌ	-10.3716
▁사람이라면	-10.3722
궁	-10.3722
큰	-10.3724
▁주윤발	-10.3725
▁그당시	-10.3725
뒤	-10.3726
▁캐릭터들	-10.3726
▁재난	-10.3727
▁사람들에게	-10.3728
▁환경	-10.3733
헤	-10.3738
▁그것을	-10.3742
지요	-10.3746
▁전편	-10.3747
▁빌	-10.3748
것같은데	-10.375
▁죄	-10.3755
▁빵빵	-10.3756
▁무섭지	-10.3761
▁깜짝	-10.3761
▁메시지	-10.3763
옹	-10.3764
옴	-10.3766
▁손발	-10.3769
▁보았	-10.3776
▁예술영화	-10.3783
▁보는거	-10.3789
놀	-10.3789
▁진지한	-10.379
▁명작은	-10.3791
었으면	-10.3793
▁따위	-10.3793
나도	-10.3794
▁액션을	-10.3797
▁방법	-10.3798
▁빕니다	-10.3805
▁역겨운	-10.3805
▁블랙코미디	-10.3806
▁이것보단	-10.3807
▁섬	-10.3807
▁유지	-10.3808
▁찾	-10.3809
▁최강	-10.381
▁담긴	-10.3813
▁나오는데	-10.3815
▁아무생각없이	-10.3815
▁치유	-10.3816
▁웃는	-10.3819
▁니들	-10.3821
▁제니퍼	-10.3826
방식	-10.3826
▁다신	-10.3827
만을	-10.3828
▁볼려고	-10.3829
▁왠만한	-10.3831
레이	-10.3835
허접	-10.3836
슈	-10.3837
▁영화예요	-10.384
겟	-10.3844
▁비극	-10.3846
▁한명	-10.3846
▁영원한	-10.3849
택	-10.3849
▁이해불가	-10.3857
▁불편	-10.3857
뿐이다	-10.3858
▁없는게	-10.386
▁귀여움	-10.386
논	-10.3862
▁엘	-10.3864
놨	-10.3869
▁사랑합니다	-10.3871
있지만	-10.3873
▁100%	-10.3875
▁나이가	-10.3876
▁누군지	-10.3876
수있는	-10.3881
느낌이	-10.3881
그렇게	-10.3883
▁때마다	-10.3884
▁느낌이다	-10.3887
▁샘	-10.389
겼	-10.3894
갔	-10.3894
르는	-10.3896
▁하나하나가	-10.39
뻔한	-10.3901
▁진한	-10.3902
▁시대의	-10.3907
▁죽이	-10.3908
re	-10.3912
▁보이지	-10.3912
답게	-10.3915
▁훌륭	-10.3916
아니면	-10.3918
▁허무한	-10.392
▁동네	-10.3927
▁여러가지	-10.3929
만은	-10.3931
▁소재의	-10.3931
아직도	-10.3932
떠	-10.3933
꼴	-10.3934
▁미국의	-10.3936
한다면	-10.3937
임을	-10.3939
▁상처	-10.3943
▁한개도	-10.3948
▁이드라마	-10.3949
였지	-10.3952
찰	-10.3953
▁아진짜	-10.3953
섭	-10.3955
▁배경음악	-10.3956
영이	-10.396
▁웰메이드	-10.3962
▁어두운	-10.3962
▁보러	-10.3963
▁스릴도	-10.3965
시간동안	-10.3966
~~^^	-10.3969
▁알았음	-10.397
▁적절한	-10.3971
▁첨부터	-10.3973
▁못보겠다	-10.3974
▁양심	-10.3979
같아	-10.398
▁여러번	-10.3988
▁본듯	-10.3991
▁볼만합니다	-10.3996
점부터	-10.3998
애들이	-10.3999
▁뜬금없는	-10.3999
시대	-10.4001
▁찾아서	-10.4004
집니다	-10.4007
▁잇	-10.401
다는게	-10.4011
▁울면서	-10.4011
▁요새	-10.4012
▁잠시	-10.4013
▁우울	-10.4018
▁억지감동	-10.4019
괴	-10.402
▁혹시나	-10.4024
됬	-10.4027
▁유치해서	-10.4029
샤	-10.4033
▁매니아	-10.4034
▁안보는게	-10.4034
▁아프다	-10.4037
스가	-10.4038
★	-10.4043
▁부르	-10.4047
▁레이	-10.4051
▁올리	-10.4052
나왔	-10.4053
▁초반부	-10.4055
겠음	-10.4057
▁뽑	-10.406
럽	-10.4061
▁남기	-10.4071
이예요	-10.4074
▁테러	-10.4082
편에서	-10.4088
▁설레	-10.409
▁멍	-10.409
▁아무도	-10.4094
▁것에	-10.4096
팀	-10.41
▁망할	-10.4106
▁정보	-10.4106
▁남성	-10.4107
▁여자주인공	-10.4113
▁공감도	-10.4114
▁당신	-10.412
긴하지만	-10.412
▁풋풋한	-10.4121
▁괜찮았음	-10.4123
점수	-10.4125
..1	-10.4128
▁세번	-10.4133
▁이럴	-10.4138
▁내용에	-10.4144
▁스티븐	-10.4146
웃기	-10.4147
▁류승범	-10.415
보는게	-10.4151
원이	-10.4151
내는	-10.4152
▁했음	-10.4156
▁푸	-10.4157
▁내게	-10.4158
▁전체적인	-10.4162
▁장면들이	-10.4162
▁마이	-10.4163
낫	-10.4163
때마다	-10.4165
▁배급사	-10.4166
▁매력적이	-10.4166
▁마지막엔	-10.4167
▁배경으로	-10.4169
▁잘만들었다	-10.4169
▁말하고자	-10.4171
▁보라	-10.4176
▁빛나는	-10.4176
▁여름	-10.4177
자를	-10.4178
▁읽어	-10.418
▁마지막이	-10.418
▁십	-10.4185
▁엄	-10.4189
몽	-10.419
▁가족의	-10.4194
갓	-10.4205
엄청	-10.4207
헐	-10.4208
이었는데	-10.4208
아깝	-10.4212
▁싶었던	-10.4212
▁놀	-10.4213
▁드네요	-10.4215
▁근	-10.4217
▁장애인	-10.422
편집	-10.4221
▁쇼	-10.4221
▁기대하지	-10.4226
▁의도가	-10.4226
사이	-10.4229
▁ᄏᄏᄏᄏᄏᄏᄏᄏ	-10.4229
장면은	-10.423
▁ᄃᄃᄃ	-10.4232
▁바꿔	-10.4234
▁올려	-10.4236
▁주지	-10.4241
하는것	-10.4242
▁퍼	-10.4248
기까지	-10.425
▁영화네	-10.4251
▁누군가	-10.426
멋	-10.4261
▁망치	-10.4263
▁뭐고	-10.4268
▁감독과	-10.4269
▁동양	-10.4271
▁자기가	-10.4273
압	-10.4276
▁동성애	-10.4279
▁놀랐다	-10.4282
▁놀란	-10.4289
주면	-10.429
▁모르지만	-10.4291
▁살려	-10.4293
▁연출력이	-10.4294
▁반전에	-10.4298
폐	-10.4299
▁러브라인	-10.43
▁필	-10.4303
▁드디어	-10.4307
▁재미있었습니다	-10.4308
▁전화	-10.4308
▁괜찮게	-10.4308
▁빠져서	-10.431
▁두번째	-10.4313
▁있었으면	-10.4317
▁않은데	-10.4319
▁나을듯	-10.4324
▁맞춰	-10.4332
▁기대이하	-10.4334
거리는	-10.4335
하기에	-10.4336
▁재미있었음	-10.4337
▁앤	-10.4338
하실	-10.4339
▁바꾸	-10.4339
▁인생은	-10.4344
▁다행이다	-10.4347
▁거지같은	-10.435
하는영화	-10.4354
끼리	-10.4363
푸	-10.4371
이유	-10.4372
▁폐지	-10.4373
▁쥐	-10.4374
▁괜찮고	-10.4374
▁옥	-10.4375
에다가	-10.4376
▁그렇지만	-10.4377
▁사랑한다	-10.4377
▁단편	-10.4378
▁벗	-10.4394
▁기억나는	-10.4401
▁인상적인	-10.4402
신이	-10.4404
▁얼마	-10.4404
▁소개	-10.4406
지루하고	-10.4408
킨	-10.4408
▁있었	-10.4416
주연	-10.4417
▁작가의	-10.4418
여운이	-10.4419
랬	-10.4419
▁나오네	-10.442
▁이름을	-10.4421
▁설득력	-10.4425
▁웃기는	-10.4426
▁ᅲᅲᅲᅲ	-10.4432
100	-10.4435
▁반담	-10.4435
매력	-10.4438
었는지	-10.4439
뎅	-10.4442
▁늦게	-10.4446
욤	-10.4446
▁깊게	-10.4446
▁밤에	-10.4449
▁만들었을까	-10.4449
▁진지하게	-10.4451
▁m	-10.4453
▁보았던	-10.4453
▁이병헌	-10.4454
▁이용	-10.4455
좋네요	-10.4457
▁되는데	-10.4459
▁돼지	-10.4459
줘서	-10.446
▁박중훈	-10.446
▁깔끔한	-10.4464
▁재밌었던	-10.4468
재미있다	-10.4471
긴장감	-10.4476
분위기	-10.4479
출연	-10.4485
▁누나	-10.4485
▁추천하고	-10.4486
▁캐릭터들이	-10.4486
▁조금은	-10.4486
▁속이	-10.449
▁브루스	-10.4492
▁안본다	-10.4494
▁생각나	-10.4496
점이상	-10.4497
▁삭제	-10.4501
▁무대	-10.4507
▁밀	-10.4507
▁X	-10.4509
떨	-10.451
▁끄	-10.451
했을때	-10.4512
편까지	-10.4513
▁언니	-10.4513
▁버리고	-10.4521
▁공포를	-10.4521
보긴	-10.4522
▁정도가	-10.4524
감을	-10.4526
▁쭉	-10.4528
했다면	-10.453
몇	-10.4532
^-^	-10.4538
굳	-10.4538
뭔	-10.4539
▁응원	-10.4541
▁끝나서	-10.4545
졸작	-10.4546
▁어이없다	-10.4551
▁극중	-10.4552
▁없다고	-10.4555
애들은	-10.4558
▁실수	-10.4566
다큐	-10.457
년대에	-10.4572
▁요소가	-10.4575
▁쩌는	-10.4582
가장	-10.4585
▁내용의	-10.4591
▁믿기지	-10.4597
쓸	-10.4603
지마	-10.4604
▁과정	-10.4606
픽	-10.461
▁안나오	-10.461
▁은근	-10.4613
▁알았네	-10.4614
았음	-10.4617
▁계	-10.462
것같네요	-10.4621
▁시청자	-10.4622
▁늘어	-10.4622
▁오프닝	-10.4623
▁미안하다	-10.4625
▁잘한다	-10.4627
▁어설프다	-10.4629
▁EBS	-10.4631
▁무거운	-10.4631
▁예쁘	-10.4635
거면	-10.4636
▁하이틴	-10.4639
역할	-10.464
▁드라마입니다	-10.4646
물을	-10.4646
▁않았던	-10.4647
▁운명	-10.4648
▁개콘	-10.4651
▁뜬금없이	-10.4651
목소리	-10.4652
▁;	-10.4652
▁감동적이네요	-10.4655
▁베드신	-10.4659
장이	-10.466
▁변화	-10.4661
▁민폐	-10.4662
물론	-10.4662
▁신의	-10.4663
▁빼곤	-10.4663
삶	-10.4664
아빠	-10.4665
▁비행기	-10.4666
▁사랑스럽다	-10.4671
▁평범	-10.4675
▁절	-10.4683
▁미스	-10.4684
▁팀	-10.4687
▁생각해보게	-10.4689
▁품	-10.4689
▁갓	-10.4691
▁동영상	-10.4695
자식	-10.4697
▁한다는	-10.4699
▁뭐임	-10.4702
요소	-10.4706
광구	-10.4709
▁요즘은	-10.471
▁깎	-10.4713
▁옷	-10.4716
X	-10.4719
▁보고나니	-10.4722
▁꼬마	-10.4722
▁후에	-10.473
찾아	-10.4732
▁답이	-10.4735
감독은	-10.4745
냈	-10.4748
▁임팩트	-10.4753
돈주고	-10.4753
▁조화	-10.4754
빙	-10.4757
▁빨	-10.4759
▁거북	-10.4764
아니고	-10.4765
잼있	-10.4767
좌	-10.4768
워서	-10.4773
주기	-10.4773
▁하하	-10.4773
▁자고	-10.4782
▁재밌다는	-10.4782
。	-10.4782
▁둘째치고	-10.4782
▁사람들을	-10.4783
없나	-10.4784
▁때려	-10.4784
▁말그대로	-10.4785
▁평균	-10.4785
▁것들이	-10.4787
했을까	-10.4787
▁참나	-10.4791
▁나와야	-10.4793
려나	-10.4795
▁캐릭터를	-10.4801
▁여배우들	-10.4802
▁안맞	-10.4808
▁순수하고	-10.4808
▁첨이다	-10.4809
▁무간도	-10.4809
▁절로	-10.481
▁매력적	-10.4811
축	-10.4813
▁신하균	-10.4813
▁죽어	-10.4813
▁검색	-10.4813
▁몰	-10.4813
▁가히	-10.4813
했다고	-10.4814
점만점에	-10.4814
▁돋	-10.4815
쳐서	-10.4816
▁뛰어넘는	-10.4819
스의	-10.4821
▁2012	-10.4824
▁잃은	-10.4826
▁점수는	-10.4826
기로	-10.4835
▁짜증나게	-10.4837
▁미국식	-10.4839
▁이상하다	-10.484
▁씹	-10.4841
맘	-10.4847
▁숨은	-10.485
▁ᄒᄃᄃ	-10.4851
▁언제까지	-10.4851
▁분량	-10.4852
자고	-10.4853
▁감각	-10.4859
▁아우	-10.486
▁표현할	-10.4863
▁및	-10.4863
영화도	-10.4864
재미있게	-10.4865
▁시작해서	-10.4866
확	-10.487
▁짜임새	-10.4872
웃김	-10.4887
▁최고네요	-10.4888
몬	-10.489
앤	-10.4892
소녀	-10.4894
▁같았다	-10.4894
결국	-10.4895
▁적당한	-10.4896
▁당연	-10.4898
▁됐다	-10.4904
▁인물들	-10.4908
간에	-10.4912
▁모습은	-10.4916
▁끝도	-10.4917
사실	-10.4918
▁p	-10.4918
▁만점에	-10.4921
▁착	-10.4922
왔다	-10.4923
▁역사에	-10.4923
▁희	-10.4925
▁뭐하는	-10.493
▁했더니	-10.4931
로는	-10.4932
쟁이	-10.4937
▁진짜로	-10.4943
11	-10.4944
▁답답하다	-10.4945
▁극장에	-10.4947
▁연기력에	-10.495
▁욕이	-10.495
틴	-10.4951
▁살아야	-10.4952
▁ᄒᄒᄒᄒ	-10.4952
▁워낙	-10.4954
▁칭찬	-10.4955
▁향연	-10.4956
▁낫겠다	-10.4956
▁좋겠습니다	-10.4957
▁마시길	-10.4958
▁엄청나게	-10.4959
▁근래	-10.4959
▁싫	-10.4963
▁당신이	-10.4965
적은	-10.4966
▁하늘	-10.4969
▁멋지게	-10.4972
천원	-10.4972
▁비호감	-10.4973
▁맡은	-10.4975
▁보겠다	-10.4982
▁부활	-10.4983
▁이상해	-10.4983
타고	-10.4987
▁전문	-10.499
▁재미있었는데	-10.4993
것처럼	-10.4994
▁역겹다	-10.4994
▁든	-10.4995
▁그들이	-10.4999
▁감정이입	-10.501
▁곳	-10.5011
▁임창정	-10.5011
▁흘러가는	-10.5012
▁더빙이	-10.5019
▁안보	-10.5025
▁어디로	-10.5027
▁영상도	-10.503
라는게	-10.5031
▁있긴	-10.5033
▁영화속	-10.5033
냥	-10.5034
▁이제는	-10.5035
▁기대한	-10.5039
▁개봉당시	-10.504
가슴	-10.504
돌아	-10.5041
기도하고	-10.5042
▁내일	-10.5043
스럽게	-10.5044
▁선생님	-10.5048
자들	-10.5049
기전에	-10.505
▁낙	-10.505
지네요	-10.5054
관객	-10.5054
▁있었고	-10.5057
▁상어	-10.5057
▁꼭보세요	-10.5059
▁박보영	-10.5062
▁불쌍	-10.5064
맥	-10.5064
▁재미없을	-10.5065
▁것만	-10.5068
M	-10.5068
게하는	-10.5068
경찰	-10.507
▁행	-10.5072
00	-10.5072
▁어디가	-10.5072
관람	-10.5078
였다면	-10.5079
당한	-10.5082
▁시도는	-10.5085
이런영화	-10.5087
▁심장	-10.5088
▁아기	-10.5095
귀신	-10.51
▁원하는	-10.5102
▁쏘	-10.5103
끔	-10.5104
보고나서	-10.5105
든지	-10.5105
▁보아	-10.5106
▁잠을	-10.5107
▁이거보다	-10.5111
모르	-10.5111
▁형편없는	-10.5112
자리	-10.5114
뭐냐	-10.5116
최고다	-10.5123
▁글을	-10.5123
▁타임	-10.5125
▁과학	-10.5126
들에	-10.5126
▁뭐하자는	-10.5129
긋	-10.513
▁왕조현	-10.513
▁소름끼치는	-10.513
▁들었	-10.513
▁14	-10.513
▁싶어서	-10.5131
▁그려낸	-10.5131
▁정도는	-10.5133
▁캐스팅이	-10.5134
시키고	-10.5134
▁힘을	-10.5136
▁소통	-10.5137
▁아버지의	-10.5138
면에서	-10.514
▁디카프리오	-10.5141
▁있으나	-10.5142
▁독특하고	-10.5142
▁끼	-10.5143
▁스타워즈	-10.5145
▁귀여워요	-10.5147
▁흘러	-10.515
▁F	-10.5151
▁뭐라고	-10.5151
▁오글오글	-10.5152
▁그랬	-10.5153
▁뭐여	-10.5153
▁스타뎀	-10.5153
▁하며	-10.5156
갈수록	-10.5157
▁육	-10.5159
정이	-10.516
▁괴	-10.5161
▁무리	-10.5163
▁심한	-10.5163
▁느껴지지	-10.5164
▁응	-10.5167
듯하다	-10.5167
불쌍	-10.5172
초반	-10.5181
지않아	-10.5181
▁실망이	-10.5183
▁도데체	-10.5183
▁아만다	-10.5185
▁다운받아서	-10.5185
▁&	-10.5192
▁어디에	-10.5194
▁답답함	-10.5195
▁말고는	-10.5195
▁어이없음	-10.5202
친다	-10.5202
▁생긴	-10.5204
▁아이디어	-10.5205
▁똑같	-10.5205
an	-10.521
▁클	-10.5211
뭘	-10.5212
▁충분한	-10.5214
보고싶다	-10.5214
▁말투	-10.5216
더라도	-10.5218
▁재밌게봤어요	-10.522
아들	-10.522
있어요	-10.5228
잖아요	-10.5229
▁한번더	-10.5231
흥	-10.524
▁별로였다	-10.524
몸	-10.5245
프로그램	-10.5253
서도	-10.5256
▁분장	-10.5257
▁이별	-10.5265
▁안나온다	-10.5269
▁사회적	-10.527
사를	-10.5272
▁막판	-10.5277
닌	-10.5277
▁감독도	-10.5278
▁강간	-10.5278
안하고	-10.528
▁말인가	-10.5281
비추	-10.5284
▁와닿	-10.5285
에비해	-10.529
▁완	-10.529
▁만들다	-10.5291
그만	-10.5292
▁맹	-10.5297
▁링	-10.5298
▁배신	-10.5301
▁것인가	-10.5302
▁감명깊게	-10.5302
▁오글거리는	-10.5305
억지	-10.5308
닷	-10.5308
▁살렸다	-10.5308
▁시종일관	-10.5308
▁미스캐스팅	-10.5309
답니다	-10.531
▁감동적이에요	-10.5311
▁흑백	-10.5317
성우	-10.5319
▁학생	-10.532
덕에	-10.5323
▁여러모로	-10.5324
▁잼있네요	-10.5327
톤	-10.5327
▁뒤죽박죽	-10.5328
▁인터넷	-10.533
▁최고라고	-10.533
▁작화	-10.5331
같은영화	-10.5332
▁소장하고	-10.5332
▁알파치노	-10.5332
▁가짜	-10.5335
감동적	-10.5336
▁완벽하다	-10.5336
▁오로지	-10.5338
▁말밖에	-10.534
▁방해	-10.5341
▁비쥬얼	-10.5341
▁살아있는	-10.5341
▁쉽지	-10.5343
▁속았다	-10.5344
▁오는	-10.5347
미친	-10.5348
▁다시금	-10.5351
▁타란티노	-10.5354
느냐	-10.5355
▁미스터리	-10.5356
겠네요	-10.5356
▁아이들의	-10.5359
▁공유	-10.5359
▁삶과	-10.5359
▁찌	-10.5361
▁충분	-10.5362
▁킬러	-10.5364
받은	-10.5367
제로	-10.5368
▁어이없	-10.5369
지나	-10.5371
▁일본인	-10.5373
▁연기하는	-10.5376
▁거리	-10.5377
▁아이들에게	-10.5378
인걸	-10.5381
았던	-10.5382
▁잼잇	-10.5384
만하다	-10.5384
▁하다니	-10.5384
을수	-10.5384
▁전편보다	-10.5388
▁네티즌	-10.5389
▁범죄자	-10.539
재미있	-10.5394
볼수	-10.5394
있습니다	-10.54
▁입장에서	-10.5402
▁맞다	-10.5403
▁왔습니다	-10.5405
캐	-10.5409
▁표현이	-10.5411
▁슬픈영화	-10.5412
▁만들어라	-10.5412
▁났다	-10.5412
있네요	-10.5414
▁우는	-10.5414
▁재미없네요	-10.5415
▁결과	-10.5419
힘들	-10.5421
아버지	-10.5426
바로	-10.5429
▁비슷	-10.5431
빼곤	-10.5436
판타지	-10.5437
▁그런거	-10.5437
CG	-10.5438
TV	-10.5438
▁보단	-10.5438
▁기대가	-10.5439
그나마	-10.544
▁떡	-10.544
우리나라	-10.5443
컷	-10.5443
▁긴장감을	-10.5443
▁d	-10.5448
올리	-10.5448
▁안나오는	-10.545
▁프랑스영화	-10.5458
보여	-10.546
살이	-10.5463
지루하다	-10.5466
▁고등학교	-10.5479
▁코믹영화	-10.5488
▁아마추어	-10.549
▁가족애	-10.549
▁유덕화	-10.549
▁닥치고	-10.5491
▁픽사	-10.5491
▁바탕으로	-10.5493
▁억지스럽고	-10.5493
었고	-10.5494
▁말씀	-10.5496
▁상황이	-10.5497
▁보기가	-10.5498
▁당장	-10.5498
▁만화영화	-10.5502
▁모르겠네	-10.5502
▁연인	-10.5504
▁산만하고	-10.5505
▁충분하다	-10.5505
어지는	-10.5506
▁쩔어	-10.5507
는구나	-10.5508
▁사랑스럽고	-10.5509
▁충격적인	-10.5509
▁우연	-10.551
겠어	-10.551
▁오래전에	-10.5512
▁L	-10.5515
▁받았다	-10.5517
전혀	-10.5517
▁흥	-10.5519
▁김수현	-10.5523
▁movie	-10.5532
▁직업	-10.5538
▁건가	-10.5538
무섭	-10.5538
▁빠른	-10.5538
겁	-10.5539
▁할때	-10.554
▁혁명	-10.5541
▁장난하나	-10.5542
▁시리즈의	-10.5544
▁흥미를	-10.5547
▁난해한	-10.5547
▁보지마셈	-10.5549
여주인공	-10.5552
▁캐릭터도	-10.556
▁우선	-10.5563
부터가	-10.5565
▁똑같이	-10.5568
▁재미잇	-10.5569
▁신고	-10.5571
▁수준을	-10.5571
것인가	-10.5571
▁어쩌다	-10.5572
살때	-10.5578
받을	-10.5578
화가	-10.5582
데요	-10.5582
▁스릴러물	-10.5584
▁미소가	-10.5585
▁넣어	-10.559
▁역사상	-10.5592
해주고	-10.5592
▁인류	-10.5596
▁세상에서	-10.5598
같아서	-10.5598
나름	-10.56
▁끝을	-10.5606
▁나음	-10.5608
▁땐	-10.5609
▁멋져	-10.5612
감정	-10.5612
생활	-10.5614
▁상황을	-10.5614
콩	-10.5617
▁보아도	-10.5618
잤	-10.562
▁대부	-10.5621
것같	-10.5627
▁인내심	-10.5628
▁선동	-10.5628
어떤	-10.563
▁버려	-10.563
각본	-10.5632
도안	-10.5632
▁백인	-10.5636
▁죽인	-10.5637
아까운	-10.5637
▁낮은지	-10.5641
이었어요	-10.5642
▁준비	-10.5642
보네	-10.5643
례	-10.5645
▁현실감	-10.5649
▁출	-10.5651
▁뻔한스토리	-10.5651
웨이	-10.5651
엽	-10.5654
▁휘	-10.5656
복수	-10.5659
▁이도저도	-10.5661
였구나	-10.5664
▁만든거	-10.5668
▁보려	-10.5669
▁끈	-10.5669
▁한효주	-10.5669
▁가능	-10.5671
닝	-10.5675
수없는	-10.5675
쓰는	-10.5675
▁이해도	-10.5677
▁듣	-10.5679
▁조낸	-10.5679
▁풀어낸	-10.5679
▁조금만	-10.5681
▁검	-10.5682
ᅮᅲ	-10.5685
▁못하겠다	-10.5687
▁현실은	-10.5687
▁나열	-10.5694
▁두시간	-10.5695
▁잊을수	-10.5695
하고싶다	-10.5696
▁에라이	-10.5697
▁흥분	-10.5697
야한다	-10.5701
▁진수	-10.5705
▁갖다	-10.5705
▁심하다	-10.5707
▁좋으나	-10.5707
▁강동원	-10.571
▁하도	-10.5712
▁최악의영화	-10.5714
없는영화	-10.5715
▁욕먹	-10.5717
▁줄이야	-10.5718
▁헛	-10.5718
▁하품	-10.572
▁ᄉ	-10.5724
▁섬세한	-10.5725
▁울었어요	-10.5725
재밌고	-10.5725
거든	-10.5728
▁좋아하지만	-10.5728
▁액션신	-10.5728
▁영화인줄	-10.5729
▁떼	-10.5736
▁후하게	-10.5736
▁전개는	-10.5737
롭	-10.5738
여배우	-10.5741
▁아까워서	-10.5744
▁수록	-10.5744
▁관심이	-10.5744
▁묘한	-10.575
▁정신이	-10.5751
▁했을까	-10.5753
▁신인	-10.5753
▁할말	-10.5753
▁아니었다	-10.5754
▁찾기	-10.5756
▁이것보다	-10.576
되나	-10.5769
▁페	-10.5769
▁무서움	-10.5773
▁나머지는	-10.578
▁배우들을	-10.5781
▁쪽	-10.5781
▁용기	-10.5784
▁겨울	-10.5787
▁에효	-10.5787
았는데	-10.579
▁불쾌	-10.579
깔	-10.5791
중에서	-10.5792
재밋다	-10.5792
▁진지	-10.5792
▁아무튼	-10.5794
스키	-10.5794
▁코드	-10.5796
점이나	-10.5797
흠	-10.5797
하군	-10.5799
▁소년	-10.58
▁한가지	-10.5801
배우들이	-10.5802
▁넘넘	-10.5804
▁is	-10.5804
춘	-10.5813
▁끌고	-10.5815
▁보고있는데	-10.5818
▁관련	-10.5818
얼마나	-10.5819
▁나올때	-10.5819
ost	-10.5819
▁당신의	-10.5823
허무	-10.5826
인게	-10.5829
▁오글	-10.5835
!!!!!!	-10.584
▁언	-10.5842
▁깔	-10.5843
▁꿀	-10.5844
▁고독	-10.5849
었네요	-10.5849
됐	-10.585
적이다	-10.5855
객	-10.5856
만큼이나	-10.5856
▁뻔하다	-10.5858
▁살리지	-10.5862
▁마찬가지	-10.5864
▁떡밥	-10.5864
▁두고두고	-10.5865
▁딸이	-10.5867
당시	-10.5868
▁새벽	-10.5868
시키	-10.5873
즘	-10.5874
▁우린	-10.5876
▁쉬운	-10.5879
▁고문	-10.5881
▁행복하게	-10.5881
▁사용	-10.5883
▁연기자들	-10.5888
▁이야	-10.5888
할것	-10.589
▁무섭게	-10.5891
▁보는것	-10.5892
▁클래식	-10.5894
웠다	-10.59
▁다르	-10.5901
▁비록	-10.5903
▁비현실적	-10.5905
▁버린	-10.5907
<	-10.5908
▁멋지	-10.591
▁보라고	-10.591
▁한심하다	-10.5912
어디	-10.5913
▁ᄌᄂ	-10.5913
▁레옹	-10.5913
▁부분은	-10.5913
▁양아치	-10.5914
ar	-10.5916
▁길이	-10.592
흔	-10.5923
바라	-10.5923
▁매번	-10.5923
▁구성도	-10.5925
▁화질	-10.5926
▁누	-10.5927
▁영화라서	-10.5937
▁넘어서	-10.5938
▁잔인함	-10.5939
▁민족	-10.5945
할줄	-10.5953
점으로	-10.5958
▁웃었다	-10.5961
▁조선	-10.5966
▁곰	-10.5969
▁신이	-10.5971
▁했는지	-10.5974
재미있어요	-10.5977
▁사랑하고	-10.5978
▁지켜	-10.5979
▁드라마로	-10.598
▁묻어	-10.5984
▁의도는	-10.5986
▁모자라	-10.5988
▁유럽	-10.5988
▁드라마에	-10.5989
센	-10.5989
▁관객이	-10.599
▁만드네	-10.5991
▁잼없다	-10.5991
됩니다	-10.5992
▁했으나	-10.5993
▁필요가	-10.5999
▁관객들	-10.6
▁송강호	-10.6001
▁다른영화	-10.6001
알아	-10.6002
아요	-10.6012
벨	-10.6013
▁의지	-10.6013
로맨스	-10.6014
▁짐캐리	-10.6015
것보다	-10.6017
▁부모님	-10.6021
▁성룡의	-10.6024
▁정리	-10.6025
▁공포가	-10.6027
▁서양	-10.6027
▁완성	-10.603
▁영화와	-10.6031
▁마냥	-10.6031
▁일을	-10.6032
▁잡아	-10.6036
▁이영화의	-10.6037
이후로	-10.6039
하길래	-10.6041
이긴	-10.6042
▁눈으로	-10.6043
제일	-10.6044
▁기다리	-10.6044
▁티비로	-10.6044
▁세월이	-10.6046
▁왔	-10.6047
▁마지막회	-10.6048
릭	-10.605
50	-10.6053
렉	-10.6054
▁4.44	-10.6056
▁감성팔이	-10.6057
▁온갖	-10.6057
▁재앙	-10.6059
▁자연스럽게	-10.606
▁괜찮았던	-10.606
▁친구들	-10.6062
▁지옥	-10.6063
답다	-10.6064
▁개꿀잼	-10.6066
▁부산	-10.6069
▁아이유	-10.6071
▁영화라지만	-10.6077
▁원작과	-10.6077
▁괜찮네요	-10.6078
하기엔	-10.608
▁바뀌	-10.6083
▁남는게	-10.6083
▁이만한	-10.6084
더군	-10.6087
▁ᄌ	-10.6089
▁논	-10.6089
때부터	-10.6089
싫어	-10.6089
▁조잡한	-10.609
수록	-10.609
▁잔잔함	-10.6092
는대	-10.6093
▁공주	-10.6093
거에요	-10.6098
▁직	-10.6099
할수있	-10.6107
▁하기엔	-10.6108
▁스파이더맨	-10.6111
안된다	-10.6111
▁액션씬	-10.6112
▁이거보단	-10.6116
▁버렸다	-10.6118
▁커서	-10.6121
▁아쉬워요	-10.6126
한것	-10.613
▁보게되는	-10.6131
▁빅	-10.6138
▁봉	-10.614
았지만	-10.6141
▁싶습니다	-10.6145
였을	-10.6148
▁느끼고	-10.6149
▁낚	-10.6152
▁요소	-10.6155
▁드림	-10.6155
▁재방	-10.6156
▁여신	-10.6158
▁궁	-10.6158
하니까	-10.616
▁의미도	-10.6163
평가	-10.6163
▁아니라면	-10.6163
▁하세요	-10.6166
...(	-10.6167
보려고	-10.6167
▁널	-10.6168
▁별점이	-10.6168
▁북	-10.6169
▁영화보다가	-10.6171
▁나왔던	-10.6172
대를	-10.6172
▁끊	-10.6173
식이	-10.6173
▁돌아보게	-10.6176
▁아련	-10.6179
개는	-10.6184
▁평을	-10.6188
▁인생영화	-10.6188
폭	-10.6193
▁줘야	-10.6205
어진	-10.6205
선택	-10.6207
결혼	-10.6214
덕분에	-10.6214
▁아동	-10.6215
▁웃음을	-10.6215
▁빠지는	-10.6217
▁피해	-10.6226
▁상징	-10.6226
것들이	-10.623
하러	-10.6231
졌	-10.6238
엠	-10.6239
▁스포츠	-10.624
▁책으로	-10.6243
▁제작비가	-10.6243
이랄까	-10.6247
▁짱이다	-10.6248
▁대학	-10.6251
▁들어서	-10.6251
▁액션만	-10.6252
▁껐다	-10.6252
▁점수준것들	-10.6252
▁지루함을	-10.6254
▁로빈	-10.6255
▁싶었	-10.6255
▁태국	-10.6255
▁실망이다	-10.6257
▁별로네요	-10.6258
는거지	-10.6258
^^*	-10.6259
▁부정	-10.6261
제작	-10.6261
▁감동적입니다	-10.6262
▁화장실	-10.6262
▁기발한	-10.6264
▁예고	-10.6264
너무나	-10.6265
못함	-10.6265
▁빨갱이	-10.6268
▁낚인	-10.627
▁잼있는	-10.627
▁필요한가	-10.6272
▁한동안	-10.6273
▁느껴졌다	-10.6273
▁안타까움	-10.6274
▁애초에	-10.6274
▁명성에	-10.6279
▁로맨틱코미디	-10.6286
했었는데	-10.629
ᅮᅮᅮ	-10.629
▁여자를	-10.6291
분짜리	-10.6291
▁높이	-10.6298
▁몰입도도	-10.6298
▁제목에	-10.6301
오브	-10.6304
▁기다려	-10.6304
▁배우분들	-10.6305
▁짜리	-10.631
▁웃겼다	-10.6316
어여	-10.632
▁중년	-10.6323
어용	-10.6326
▁때문	-10.633
▁이상은	-10.6335
▁알려주는	-10.6338
▁걱정	-10.634
▁해야지	-10.6344
▁공간	-10.6344
▁했습니다	-10.6354
▁범	-10.6361
여자가	-10.6361
육	-10.6362
▁말아야	-10.6364
▁가족을	-10.6365
닥	-10.637
결말이	-10.6371
그런데	-10.6372
▁있었음	-10.6375
▁높지	-10.6387
▁니가	-10.6387
▁통쾌	-10.6394
ᄏᄏᄏᄏᄏᄏ	-10.6396
▁;;;	-10.6398
▁신화	-10.64
▁바닥	-10.6401
님들	-10.6403
▁공포는	-10.6403
▁오해	-10.6405
먹은	-10.6405
않은	-10.6405
보내	-10.641
서는	-10.6413
칼	-10.6414
수는	-10.6414
ᄇ	-10.6415
둔	-10.6415
자체	-10.6416
탑	-10.6416
털	-10.6418
쩝	-10.6418
▁생각은	-10.6419
▁최대	-10.6421
▁맞나	-10.6422
▁재미있었	-10.6423
흘	-10.6423
애니메이션	-10.643
들끼리	-10.6432
▁내돈	-10.6437
역사	-10.644
▁안될	-10.6441
▁어거지	-10.6442
협	-10.6445
어린	-10.6447
▁낭만	-10.6449
▁들어간	-10.6451
▁뒤늦게	-10.6452
혔	-10.6452
▁오그라드는	-10.6453
▁남자는	-10.6453
▁자연스러운	-10.6454
▁재밌었습니다	-10.6458
▁해준다	-10.6458
▁반영	-10.6458
▁고증	-10.6461
▁버리	-10.6462
▁신비	-10.6462
▁있냐	-10.6463
▁찬	-10.6463
보소	-10.6464
▁오랫동안	-10.6465
▁완벽하게	-10.6469
▁부인	-10.647
▁처음본다	-10.6472
▁밋밋한	-10.6473
▁데이빗	-10.6474
▁한다고	-10.6476
▁화끈한	-10.6479
▁바란다	-10.6482
▁역작	-10.6482
▁의미있는	-10.6482
버전	-10.6484
▁P	-10.6484
있었	-10.6485
ᄏᄏᄏᄏᄏᄏᄏ	-10.6485
▁음악은	-10.649
▁하자	-10.6491
▁니들이	-10.6494
▁전성기	-10.6495
▁틀어	-10.6495
▁바라는	-10.6498
남주	-10.65
보던	-10.6504
▁수면제	-10.6505
▁도시	-10.6506
▁부족하고	-10.6509
▁글고	-10.6509
놀이	-10.6511
▁또라이	-10.6517
▁것들	-10.6517
▁킬링	-10.6519
▁천사	-10.652
학년때	-10.652
▁점이	-10.6522
▁앞에서	-10.6523
미가	-10.6524
틱	-10.6525
▁시청자들	-10.6526
이래	-10.6526
뭐지	-10.6528
▁보고싶은데	-10.6532
▁되서	-10.6533
▁의해	-10.6537
▁멋짐	-10.654
▁영상은	-10.6541
▁전투	-10.6545
▁낳	-10.6547
▁벤	-10.6548
▁정서	-10.6548
라지만	-10.6554
▁나오기	-10.6557
▁빠져들게	-10.6559
▁멋있고	-10.6564
▁절대로	-10.6565
되네요	-10.6568
~~~~~	-10.657
▁러브	-10.6571
▁기억나	-10.6571
▁아무나	-10.6573
▁커버	-10.6574
꿈	-10.6574
▁모든것이	-10.6576
같지	-10.6579
▁천국	-10.658
치곤	-10.6582
행복	-10.6585
▁여기에	-10.6588
▁느낀다	-10.6588
▁칠	-10.6588
▁관점	-10.659
꽃	-10.6591
▁안나옴	-10.6591
분정도	-10.6599
▁O	-10.6607
우는	-10.6608
▁안본	-10.661
▁듣는	-10.661
P	-10.6615
기에는	-10.6622
▁한시간	-10.6623
▁스토리전개	-10.6623
▁얘기를	-10.6624
L	-10.6628
▁후반부에	-10.6628
포인트	-10.6629
▁족	-10.6629
하겠습니다	-10.663
▁길을	-10.6634
재밋음	-10.6636
▁끝날	-10.6639
▁성인이	-10.6639
헌	-10.6639
주지	-10.6644
40	-10.6644
▁대박이다	-10.6646
▁안감	-10.6652
▁겁	-10.6654
ed	-10.6655
내내	-10.6656
▁늙은	-10.6656
▁봤고	-10.6656
▁세련된	-10.6656
▁짬뽕	-10.6656
▁bad	-10.6656
▁거품	-10.6657
좋았	-10.6659
▁아니잖아	-10.6659
▁억지스런	-10.6661
▁마블	-10.6661
광고	-10.6663
져요	-10.6664
...^^	-10.6664
▁설정은	-10.6666
▁언어	-10.667
▁않습니다	-10.667
▁모방	-10.6671
▁주온	-10.6671
▁복선	-10.6673
▁스페인	-10.6674
▁현실적이고	-10.6677
▁피아노	-10.6679
▁채워	-10.668
▁웃겨서	-10.6682
▁최고에요	-10.6684
▁편하게	-10.6685
▁끝났	-10.6686
▁있겠지만	-10.6686
넣	-10.6687
▁짱구	-10.6689
▁유발	-10.6689
▁한석규	-10.6694
▁완젼	-10.6694
▁케빈	-10.6694
셈	-10.6695
▁엄정화	-10.6699
▁시험	-10.67
▁걸까	-10.6701
뭐야	-10.6701
▁슬	-10.6702
고싶은	-10.6703
▁대사도	-10.6703
▁하기	-10.6703
▁의문이	-10.6703
▁문제를	-10.6704
구먼	-10.6705
▁답답해	-10.6705
▁느껴질	-10.6706
후에	-10.6707
누구	-10.6709
보이는	-10.6709
▁제대로된	-10.6709
▁미스테리	-10.6709
▁욕심	-10.671
▁본능	-10.6712
▁외국인	-10.6713
▁사이코	-10.6718
▁새끼	-10.672
▁당연한	-10.6726
▁꿈과	-10.6729
에휴	-10.6731
▁상업영화	-10.6736
▁낮네요	-10.6738
▁라이언	-10.6739
▁봐줄만	-10.674
▁와서	-10.6742
▁센스	-10.6743
▁줄수	-10.6745
▁감독에게	-10.675
▁받아야	-10.6753
▁슬퍼	-10.6755
▁발상	-10.6755
구역	-10.6763
▁아이를	-10.6767
못한	-10.6768
▁주인공들이	-10.677
▁드라마다	-10.677
수작	-10.6778
▁흑	-10.6786
▁시리즈를	-10.6787
씬이	-10.6789
찡	-10.6789
▁철학적	-10.6795
▁볼것	-10.6796
▁가족과	-10.6797
▁안가는	-10.6799
▁이해할수	-10.6805
▁H	-10.6808
▁만들기	-10.6812
동화	-10.6816
▁특이	-10.682
▁가장한	-10.682
가면서	-10.6822
▁과정이	-10.6824
흑	-10.6825
▁의한	-10.6827
▁약한	-10.6831
겹	-10.6835
▁안보면	-10.6836
F	-10.6837
▁두명	-10.6837
K	-10.6839
않다	-10.6839
쳤다	-10.6841
폭력	-10.6842
▁잔인	-10.6843
▁무협영화	-10.6844
살인	-10.6852
▁진부하다	-10.6853
인들	-10.6856
▁상대	-10.6857
▁일본에서	-10.6857
▁어째	-10.6859
com	-10.6859
▁f	-10.6861
재미없어	-10.6862
▁여태	-10.6863
▁이영화에	-10.6864
냄	-10.6864
▁침	-10.6864
▁기획	-10.6864
룩	-10.6865
▁설경구	-10.6865
▁크레딧	-10.6865
▁호불호가	-10.6865
▁원피스	-10.6865
▁드니로	-10.6865
▁그냥저냥	-10.6866
▁보낸다	-10.6866
▁생존	-10.6867
▁거짓	-10.6867
▁시골	-10.6868
▁전개에	-10.6869
▁찍었	-10.6869
간만에	-10.687
보려	-10.6871
▁제작자	-10.6872
달라	-10.6873
▁말아먹	-10.6873
▁극본	-10.6874
▁미학	-10.6874
함에	-10.6875
▁시체	-10.6875
▁멋져요	-10.6879
하지말고	-10.6881
▁기대된다	-10.6884
폰	-10.6885
▁달달	-10.6889
▁이런식으로	-10.6891
▁재밌지	-10.6893
▁않아요	-10.6899
▁개인적인	-10.6899
▁애니매이션	-10.6903
▁나루토	-10.6903
▁후속편	-10.6907
▁상처를	-10.6908
▁남아있는	-10.6908
▁초반엔	-10.6909
▁분위기는	-10.691
▁자랑	-10.6914
빠져	-10.6923
▁진행되는	-10.6923
사의	-10.6924
▁말이필요없다	-10.6925
▁첨으로	-10.6927
회부터	-10.6927
▁웃을	-10.6932
▁찍을	-10.6934
▁만들어야	-10.6934
▁일주일	-10.6935
▁아침	-10.6937
▁만들었으면	-10.6939
▁지루하	-10.694
▁잼나	-10.6941
▁파리	-10.6944
▁취향이	-10.6959
▁성형	-10.6959
▁되었습니다	-10.6965
않는	-10.6966
▁이러	-10.6966
▁W	-10.6967
▁나오네요	-10.6968
▁걸로	-10.6969
▁스포	-10.6972
▁간지	-10.6973
우스	-10.6974
▁욕을	-10.6975
▁17	-10.6978
끝나고	-10.6982
▁눈치	-10.6982
▁이하도	-10.6984
▁주세요	-10.6987
▁젖	-10.7005
지루해	-10.7005
▁편견	-10.7006
▁회사	-10.7007
▁16	-10.7008
▁액션물	-10.7009
▁감성을	-10.7013
점주	-10.7015
분도	-10.7017
▁긴장감과	-10.7018
▁구조	-10.7021
▁스토리로	-10.7021
90	-10.7023
대고	-10.7024
없네요	-10.7025
▁멜로영화	-10.703
▁전율이	-10.7033
▁사람과	-10.7034
거라고	-10.7034
G	-10.7038
▁아버지가	-10.7043
▁이어지는	-10.7048
▁도둑	-10.7049
빛	-10.7051
▁만화책	-10.7053
할수가	-10.7054
춤	-10.7054
▁모습에	-10.7054
▁정부	-10.7054
암튼	-10.7058
갑자기	-10.7058
▁락	-10.706
랫	-10.7061
것같음	-10.7062
▁보여줄	-10.7064
▁봐야한다	-10.7064
▁적은	-10.7065
▁연주	-10.7065
동생	-10.7065
▁영화인것	-10.7066
▁따름	-10.707
몰입	-10.7076
리를	-10.7076
드만	-10.7077
▁봤나	-10.7077
▁흥미롭게	-10.7078
▁점에서	-10.7078
▁2.22	-10.7079
▁새삼	-10.708
▁벽	-10.7081
▁심각하게	-10.7082
▁모욕	-10.7084
▁완성도가	-10.7089
▁아내	-10.7089
▁아이언맨	-10.7091
▁동화같은	-10.7092
▁회상	-10.7094
것같아	-10.7094
▁귀여워서	-10.7095
▁박찬욱	-10.7096
▁영웅본색	-10.7096
▁몰라	-10.7096
▁히어로물	-10.7096
효과	-10.7096
▁감동적이었다	-10.7101
▁어딘가	-10.7101
▁승	-10.7104
제가	-10.7107
▁러닝타임이	-10.7112
▁안되네	-10.7112
까봐	-10.7114
▁말았다	-10.7116
▁김희선	-10.7117
▁테이큰	-10.7117
▁보구	-10.712
▁늑대	-10.7125
▁우리에게	-10.7125
표정	-10.7125
80	-10.7128
▁슈퍼맨	-10.7128
▁빠져들	-10.7131
▁들게	-10.7133
▁이야기의	-10.7134
▁생각만	-10.7136
▁음악을	-10.714
▁걸작이다	-10.714
하였다	-10.714
되게	-10.7142
점주기도	-10.7145
▁참여	-10.7145
▁독특	-10.7147
▁떨어지	-10.7147
맞는	-10.7151
▁명배우	-10.7153
▁졸잼	-10.7154
▁강추합니다	-10.7155
▁거기다	-10.7155
▁재능	-10.7156
같아요	-10.7156
▁만들었냐	-10.7156
▁영화야	-10.7159
기영화	-10.7161
▁아픔	-10.7161
▁수입	-10.7162
▁드라마중	-10.7164
었지	-10.7164
▁김치	-10.7168
▁못했던	-10.7168
▁대역	-10.717
▁없던	-10.7173
최악의	-10.7173
▁감이	-10.7175
▁반감	-10.7176
▁앞뒤	-10.7177
▁이렇게까지	-10.7177
게다가	-10.7177
▁스토리나	-10.7179
▁죽음을	-10.7179
답답	-10.718
▁쌍	-10.718
▁평화	-10.718
▁여자들이	-10.7183
▁싶다면	-10.7185
▁다시봤는데	-10.7188
▁컨셉	-10.719
법한	-10.719
이기에	-10.719
▁다름	-10.7191
ᄃᄃᄃ	-10.7193
▁연습	-10.7193
▁영상미도	-10.7195
▁싶음	-10.7195
▁이딴게	-10.7196
적이지	-10.7196
▁머야	-10.72
지도않고	-10.7202
▁이기	-10.7203
고요	-10.7207
있으면	-10.7211
▁머냐	-10.7212
▁편인데	-10.7213
▁왔는데	-10.7218
▁주고싶다	-10.7221
▁브	-10.7222
줄이야	-10.7222
▁복잡	-10.723
▁연기만	-10.7232
▁허나	-10.7236
▁대결	-10.7237
개가	-10.7241
▁최소한	-10.7246
▁좋더라	-10.7248
말도	-10.7254
▁되면	-10.7256
으려고	-10.7261
▁오랜	-10.7262
▁G	-10.7266
▁노인	-10.7274
▁애니는	-10.7276
섬	-10.7278
▁집중도	-10.7279
옛날	-10.728
랜	-10.7283
▁로망	-10.7286
0%	-10.7287
▁같지	-10.7289
됫	-10.7289
차원	-10.7291
오랜만에	-10.7292
아닌데	-10.7293
▁군더더기	-10.7295
▁송승헌	-10.7295
▁예측	-10.7296
▁웃으며	-10.7296
예술	-10.73
▁우승	-10.73
▁소품	-10.7301
편과	-10.7301
▁엔딩은	-10.7302
호러	-10.7304
▁어설프게	-10.7305
:)	-10.7305
진행	-10.7306
볼만	-10.7311
▁본인	-10.7311
었을까	-10.7312
▁손예진	-10.7314
▁원조	-10.7315
한국영화	-10.7317
▁갖게	-10.7318
▁너무하네	-10.7319
▁결국엔	-10.732
봣다	-10.7323
치기	-10.7325
............	-10.7326
▁보이고	-10.7326
▁동감	-10.7327
점대가	-10.7328
▁웃다가	-10.7328
▁막상	-10.7329
영화라	-10.7332
재밌는	-10.7332
▁면이	-10.7334
▁등장인물들	-10.7336
▁재탕	-10.7338
▁색채	-10.7339
▁권상우	-10.734
▁어차피	-10.734
▁제시카	-10.7342
▁하나는	-10.7342
거같아	-10.7343
▁봣	-10.7347
짜리	-10.7347
▁매주	-10.7348
▁힘들었다	-10.735
듣고	-10.735
▁인식	-10.7352
돈이	-10.7352
▁전라도	-10.7353
▁그지	-10.7356
알고	-10.7356
▁지금보면	-10.7356
▁ᄏᄏᄏᄏᄏᄏᄏᄏᄏ	-10.7358
▁흔들	-10.736
▁아깝습니다	-10.7364
▁허접하고	-10.7365
해지고	-10.7366
▁말은	-10.7369
▁팬들	-10.737
▁나올까	-10.737
▁권력	-10.7372
같은데	-10.7374
누가	-10.7374
▁잊지못할	-10.7374
보네요	-10.7375
▁고어	-10.7375
▁잡는	-10.7377
▁오락	-10.7384
▁긴장감은	-10.7386
▁만드냐	-10.7389
▁돈아까워	-10.739
▁면에서	-10.7391
bb	-10.7393
하시길	-10.7394
뿌	-10.7397
▁감성이	-10.7397
▁x	-10.74
▁공연	-10.7402
▁장르를	-10.7406
▁우울한	-10.7408
▁허허	-10.741
▁남기는	-10.741
▁경우	-10.7411
믿고	-10.7416
▁삶은	-10.7418
학교	-10.742
▁미녀	-10.7423
레기	-10.7424
▁ᄡ	-10.7424
▁많네	-10.7425
▁진실을	-10.7426
여운	-10.7426
▁대사와	-10.7427
받았	-10.7431
▁마니	-10.7432
묘	-10.7438
▁명작임	-10.7441
든가	-10.7442
아까움	-10.7444
▁십점	-10.7444
▁포인트	-10.7445
▁위로	-10.7447
있다면	-10.7448
큐	-10.7449
▁두개	-10.745
▁않았	-10.745
눈물이	-10.7452
▁무엇이	-10.7453
시킬	-10.7455
▁영화였는데	-10.7457
▁필요하다	-10.7458
▁비해서	-10.7466
앞에서	-10.7468
▁알바가	-10.747
서야	-10.7471
▁저급	-10.7474
▁불안	-10.7474
에게는	-10.7478
▁중독	-10.7479
▁흥미진진한	-10.7481
▁싫어하는	-10.7481
▁안봄	-10.7481
포스터	-10.7485
▁표정이	-10.7487
▁이딴거	-10.7487
줄알았는데	-10.749
▁나고	-10.7495
▁추억을	-10.7495
▁재밋고	-10.7496
굴	-10.7499
▁특별	-10.75
▁부분에서	-10.7501
조차도	-10.7501
▁to	-10.7501
국민	-10.7501
보러	-10.7503
▁나타나	-10.7504
없었다	-10.7504
▁보지도	-10.7506
▁극혐	-10.7509
볼때마다	-10.7509
▁내용전개	-10.7514
자기	-10.7515
▁박수	-10.7517
▁스필버그	-10.7517
▁카메론	-10.7517
▁가볍지	-10.7517
▁지극히	-10.7517
▁아바타	-10.7517
▁커녕	-10.7517
▁컬트	-10.7517
생각을	-10.752
▁주인공들의	-10.7522
▁과장된	-10.7523
▁기사	-10.7523
▁기억난다	-10.7523
▁예뻐서	-10.7525
▁일찍	-10.7526
댓글	-10.7526
▁오직	-10.7527
▁들지	-10.7527
심이	-10.753
▁정석	-10.7532
▁로마	-10.7536
▁불쌍해서	-10.7537
▁설명이	-10.7538
연기를	-10.754
▁본건	-10.7541
화면	-10.7542
▁캐릭터는	-10.7543
▁경계	-10.7546
▁나머진	-10.7547
볼때	-10.7547
▁외면	-10.755
▁연기로	-10.7551
나올때	-10.7554
▁오랜만	-10.7555
어른	-10.7556
줄거리	-10.7557
▁최고인듯	-10.756
▁메세지를	-10.7569
▁후반부로	-10.7571
▁형편없	-10.7572
▁치료	-10.7574
▁사람만	-10.758
▁충격적이	-10.758
입니까	-10.7581
▁즐겨	-10.7584
▁캐스팅은	-10.7584
▁시기	-10.7584
▁어린아이	-10.7585
▁오글거림	-10.7586
▁가까이	-10.7586
▁자체로	-10.7588
버렸	-10.7588
▁향한	-10.7589
주시	-10.759
▁싶었는데	-10.7593
▁영상미와	-10.7596
▁시리즈가	-10.7596
▁차승원	-10.7597
까요	-10.7599
▁오지	-10.7601
▁여운도	-10.7603
▁알지	-10.7608
▁소재만	-10.7611
▁떨어져	-10.7613
▁청년	-10.7614
▁귀신이	-10.7617
잃	-10.7621
▁모르겠	-10.7622
▁절망	-10.7625
▁신선함	-10.763
▁인물들의	-10.7631
▁시대적	-10.7633
미화	-10.7635
▁스릴감	-10.7636
짱짱	-10.7636
이구나	-10.764
▁그리워	-10.7641
><	-10.7645
▁아직까지도	-10.7651
잘못	-10.7653
▁했어요	-10.7655
▁킬링타임용으로도	-10.766
▁바라보는	-10.7665
▁하나가	-10.7666
▁어렵	-10.7667
▁당황	-10.7671
▁썼	-10.7672
▁쥬	-10.7673
픈	-10.7675
하겠지만	-10.7676
별점	-10.768
럼	-10.768
▁드라마의	-10.7683
▁본듯한	-10.7684
하기는	-10.7688
▁결국은	-10.769
났음	-10.7691
나보다	-10.7692
▁최악임	-10.7695
▁즐	-10.7699
과정	-10.7701
▁초반에는	-10.7702
▁진부	-10.7704
▁이것은	-10.7704
하고싶은	-10.7705
▁챙겨	-10.7709
놈이	-10.771
▁봤지	-10.7715
하지마	-10.7715
▁여주인공의	-10.7716
▁잘하네요	-10.7718
▁남의	-10.7721
▁알려	-10.7725
▁기법	-10.7727
껀	-10.7729
▁폭풍	-10.7729
▁-_-;;	-10.7731
납니다	-10.7731
쾌	-10.7732
홀	-10.7734
덩어리	-10.7734
▁시간과	-10.7735
▁만들었	-10.7736
▁승부	-10.7736
▁저평가	-10.7738
▁무기	-10.7741
덩	-10.7744
숭	-10.7744
졋	-10.7744
▁봤는지	-10.7744
▁소피마르소	-10.7744
▁학창시절	-10.7744
▁간간히	-10.7744
▁헬	-10.7745
줬다	-10.7745
▁손색이	-10.7745
▁욕나온다	-10.7747
▁의견	-10.7748
▁국산	-10.7748
천재	-10.7749
▁흥미롭지	-10.775
▁책임	-10.775
있었던	-10.775
곳이	-10.7752
▁거기서	-10.7755
여행	-10.7757
▁씁쓸	-10.7758
안에서	-10.7758
▁~~	-10.7759
▁인간적으로	-10.776
▁처음이네	-10.7762
▁털	-10.7763
▁엉망진창	-10.7764
▁싸이코패스	-10.7764
▁김명민	-10.7764
▁총체적	-10.7764
내려	-10.7765
▁감동적임	-10.7766
▁이은주	-10.7766
원래	-10.7766
▁부족함	-10.7766
▁위트	-10.7769
▁구혜선	-10.777
▁다이하드	-10.777
벽	-10.7772
▁영향을	-10.7772
▁어디까지	-10.7773
본거	-10.7775
▁훈훈하고	-10.7775
▁최민수	-10.7776
▁줘	-10.7777
▁약하다	-10.7777
▁빈약한	-10.7778
▁허구	-10.7779
▁노래는	-10.778
▁겨울왕국	-10.7781
▁크리스	-10.7782
실화	-10.7785
▁세대	-10.7786
▁에로물	-10.7787
▁거장	-10.7789
올려	-10.7791
조연	-10.7792
▁니콜	-10.7792
▁만든건지	-10.7792
시기	-10.7794
▁이따위로	-10.7794
됐다	-10.7794
▁커피	-10.7795
▁스파이	-10.7795
▁25	-10.7797
많고	-10.7797
▁아픔을	-10.7798
2005	-10.7799
▁버전	-10.7803
▁극복	-10.7805
▁좋아했던	-10.7805
▁아련한	-10.7807
▁이전	-10.7808
-_-;	-10.7809
둥	-10.7811
▁공룡	-10.7812
▁몰입하게	-10.7813
▁영화같다	-10.7813
몰입도	-10.7815
▁ᅲᅮ	-10.7816
▁색감	-10.782
▁있었습니다	-10.782
▁의도를	-10.7822
▁끝남	-10.7824
▁아이고	-10.7827
▁개그맨	-10.7828
▁담고	-10.7831
▁헉	-10.7831
▁원작은	-10.7834
돌려	-10.7835
▁옆에	-10.7837
▁형식	-10.7837
▁여자애	-10.7837
봐야지	-10.7838
걸작	-10.7838
조아	-10.7838
▁없어도	-10.7843
.............	-10.7845
편부터	-10.7849
▁사과	-10.785
▁좋아하지	-10.7851
▁캐릭	-10.7852
▁도와	-10.7852
나가는	-10.7853
이즈	-10.7854
▁순수함	-10.7855
감상	-10.7856
▁갔다	-10.7858
▁인권	-10.7865
▁군인	-10.7866
것에	-10.7868
▁감동입니다	-10.7869
▁애니를	-10.7869
꺼야	-10.787
▁하하하	-10.7872
▁유치찬란	-10.7873
▁주연배우	-10.7878
▁리얼리티	-10.7878
괜찮	-10.7879
그대로	-10.7881
▁역량	-10.7885
▁생기	-10.7892
▁케릭터	-10.7897
▁심장이	-10.7897
함은	-10.7898
▁크다	-10.7899
대체	-10.7899
▁강력	-10.79
▁쿨	-10.7901
▁때는	-10.7901
▁되야	-10.7904
▁키스	-10.7905
없지	-10.7907
▁곡	-10.7908
▁R	-10.7909
빌	-10.791
▁중요	-10.7911
▁한개	-10.7913
▁현실에	-10.7914
탁	-10.7915
▁때가	-10.7916
▁조아	-10.7917
▁뉴	-10.792
▁삐	-10.7922
긴다	-10.7924
라곤	-10.7924
▁쓰레기를	-10.7925
▁기억을	-10.7928
▁살인자	-10.793
▁나면	-10.7931
▁길다	-10.7937
달라고	-10.794
글자	-10.7941
쩐다	-10.7942
▁한거	-10.7943
▁이런것도	-10.7944
▁시대가	-10.7946
▁식상하다	-10.7947
▁돋보이	-10.7952
▁알게된	-10.7956
▁빠질	-10.7959
▁한국어	-10.796
▁예술이	-10.7961
▁염	-10.7962
않는다	-10.7962
보임	-10.7965
▁살다	-10.7967
립니다	-10.7968
▁까는	-10.7968
수준이	-10.7969
▁영혼	-10.7969
다음	-10.7971
측	-10.7973
▁될듯	-10.7974
U	-10.7977
▁웬만하면	-10.7977
☆	-10.7977
▁상상력이	-10.7977
▁놈들	-10.7977
▁배꼽	-10.7978
아름다운	-10.7978
▁관람객	-10.7978
▁람보	-10.7978
끝내	-10.7978
▁제목은	-10.7979
▁예수	-10.7981
▁2015	-10.7981
▁재방송	-10.7983
이기도	-10.7985
▁등장하는	-10.7986
▁언젠가	-10.7986
▁중학교	-10.7986
▁중반부터	-10.7989
▁여유	-10.799
▁이기적인	-10.7992
-.-	-10.7995
르고	-10.7996
▁여인	-10.7997
▁신경쓰	-10.7999
▁장소	-10.8001
▁소리가	-10.8001
▁읽는	-10.8001
▁고작	-10.8002
▁강아지	-10.8003
▁없애	-10.8003
스크	-10.8003
하시고	-10.8006
▁OOOO	-10.8006
▁미친듯이	-10.8006
▁재밋네요	-10.8007
▁따라가	-10.8008
▁아닐	-10.801
웃긴	-10.8012
자막	-10.8015
▁역사적	-10.8015
▁재미없었음	-10.8016
▁와닿지	-10.8017
▁이성	-10.802
▁감동이다	-10.802
▁열라	-10.8023
▁여태까지	-10.8023
잡고	-10.8024
거랑	-10.8028
▁뭐랄까	-10.8028
▁결정	-10.8028
명을	-10.8029
▁마법	-10.8032
판이	-10.8032
▁신경	-10.8032
▁베일	-10.8033
▁다리	-10.8034
▁최고인	-10.8034
▁지루했음	-10.8035
▁뉴스	-10.8035
▁어쨌든	-10.8037
성에	-10.8038
여기	-10.8039
▁시간아까워	-10.804
차이	-10.804
▁당시엔	-10.804
▁텐데	-10.804
▁나무	-10.8042
▁통해서	-10.8043
▁대사들	-10.8043
아까운영화	-10.8046
았어요	-10.8047
▁안봐서	-10.8048
하하	-10.8049
노출	-10.805
▁개소리	-10.8053
▁보는동안	-10.8056
갈때	-10.8058
▁장진	-10.8059
중국	-10.8059
남는	-10.806
▁잔혹	-10.8061
▁한계를	-10.8065
선생님	-10.8067
아오	-10.8068
▁호감	-10.8071
▁저리	-10.8072
하나도	-10.8074
올라	-10.8075
이기	-10.8077
▁느꼈	-10.8078
▁흐르	-10.8078
정도는	-10.8082
▁올라가	-10.8083
▁택	-10.8088
▁이후에	-10.8088
▁지금이나	-10.8089
▁되어야	-10.8092
으로만	-10.8094
밑에	-10.8099
▁지가	-10.8109
새끼들	-10.8109
▁소장	-10.8109
▁심오한	-10.811
▁캐리	-10.8113
▁대표	-10.8123
이러	-10.8125
▁성적	-10.8127
▁달리는	-10.8128
▁여배우의	-10.8132
▁없으니	-10.8138
▁쓰지	-10.814
시청률	-10.8143
▁지겹	-10.8147
▁죽는다	-10.8148
▁나올수	-10.8151
가면	-10.8151
이란게	-10.8152
란다	-10.8153
아닌가	-10.8154
▁중국영화	-10.8156
범죄	-10.8157
▁아닌것	-10.8162
싶은	-10.8163
▁향기	-10.8166
항	-10.817
▁시간은	-10.8173
▁맞추	-10.8173
말고는	-10.8173
그저	-10.8174
▁연기력과	-10.8183
싫다	-10.8183
멘	-10.8185
▁내리	-10.8187
▁거기	-10.8191
영화보다	-10.8193
비디오	-10.8195
기술	-10.8196
▁내시간	-10.8196
▁늙어	-10.8197
▁다보고	-10.8204
나무	-10.8207
텔	-10.821
▁줄거리가	-10.8211
뜸	-10.8214
딘	-10.8214
▁모순	-10.8214
▁팝콘	-10.8215
▁박평식	-10.8215
▁원주율	-10.8215
▁트랜스포머	-10.8215
▁엑스맨	-10.8215
▁마리	-10.8215
▁김민종	-10.8215
▁갖춘	-10.8215
▁증명	-10.8215
노답	-10.8216
덤	-10.8216
▁첫번째	-10.8218
려다	-10.8219
ma	-10.8219
▁돈으로	-10.8219
▁고인의	-10.8221
즐	-10.8221
병맛	-10.8221
썼	-10.8221
▁세상의	-10.8222
▁h	-10.8222
ᄉᄇ	-10.8222
잘봤습니다	-10.8225
en	-10.8226
▁정통	-10.8227
보시길	-10.8227
▁제왕	-10.8228
▁신세계	-10.823
집에서	-10.8232
▁많음	-10.8233
▁러브스토리	-10.8233
▁이따구로	-10.8235
비가	-10.8235
▁난해	-10.8236
▁마무리가	-10.8236
▁더욱더	-10.8237
▁사라진	-10.8237
▁퇴보	-10.8238
하다고	-10.8238
▁애국심	-10.824
성룡	-10.8243
같은거	-10.8245
▁보일	-10.8247
▁사람에게	-10.8247
▁농담	-10.8248
▁실감	-10.8249
혼자	-10.825
이였음	-10.8252
학생	-10.8253
▁힙합	-10.8253
▁기대했던	-10.8257
▁적당하다	-10.8258
셔서	-10.8259
▁이것저것	-10.8265
▁어이없고	-10.8267
▁기준	-10.827
▁원숭이	-10.8271
▁장르의	-10.8273
▁환상적인	-10.8273
▁남고	-10.8276
▁전지현	-10.8277
▁끔	-10.8278
웨	-10.8279
▁슈	-10.828
▁통쾌한	-10.8284
지루한	-10.8285
▁마지막은	-10.8291
▁시키	-10.8292
▁내면	-10.8294
끌	-10.8294
▁반도	-10.8295
사극	-10.8296
▁물어	-10.8299
▁작품에	-10.83
▁뺏	-10.83
▁불쾌한	-10.8302
▁아침드라마	-10.8303
▁인생에서	-10.8304
▁가져	-10.8305
▁드라마라고	-10.8307
▁데뷔작	-10.8308
▁명작이라고	-10.8309
딴	-10.8313
쏘	-10.8316
▁시간도	-10.8319
▁작품이라	-10.8321
▁보고싶네요	-10.8322
있었는데	-10.8324
▁갖	-10.8324
내용을	-10.8326
▁죽일	-10.8327
▁돈아깝다	-10.8332
▁최하	-10.8334
▁궁금해	-10.8334
졌음	-10.8337
▁영화중에서	-10.8339
▁잘해	-10.8342
▁발연기에	-10.8344
▁야하지도	-10.8345
▁입장	-10.8347
라는데	-10.8349
▁것과	-10.8351
히는	-10.8353
▁아리	-10.8354
▁재밋는	-10.8355
빼고는	-10.8357
게만드는	-10.8361
찍는	-10.8363
▁네이버평점	-10.8368
▁한줄	-10.837
▁분위기를	-10.8371
▁소리만	-10.8372
둥이	-10.8373
▁가상	-10.8374
▁굿굿굿	-10.8375
▁그들	-10.8375
도좋고	-10.8384
영화네요	-10.8385
수밖에	-10.8385
▁허술	-10.8387
▁가치도	-10.8389
▁이루	-10.839
ᄒᄒᄒᄒ	-10.8393
▁불쌍해	-10.8395
▁우리나라에서	-10.8397
▁메이	-10.8397
▁케미	-10.8404
▁떠오르는	-10.8405
감성	-10.8406
냈다	-10.8408
▁나온거	-10.8409
▁가야	-10.8409
버렸네	-10.841
▁한방	-10.8411
시간을	-10.8415
중간에	-10.8416
마음이	-10.842
▁포스	-10.8421
▁자체도	-10.8423
그녀	-10.8424
드라마는	-10.8426
▁호기심	-10.8426
▁인도영화	-10.8429
엇는데	-10.843
대단	-10.8432
발연기	-10.8434
않음	-10.8435
오래	-10.8436
▁웃긴다	-10.8437
▁멋진영화	-10.8437
▁부실	-10.844
▁녹	-10.8441
▁남긴	-10.8443
▁영환	-10.8443
▁좋겠	-10.8447
▁왔다	-10.8452
▁본적이	-10.8454
봤으면	-10.8456
멸	-10.8456
▁제목과	-10.8456
▁본방	-10.8457
▁음향	-10.8457
▁욕만	-10.8458
^_^	-10.8459
▁사무라이	-10.8459
▁에드워드	-10.8459
▁정확히	-10.8459
▁톰크루즈	-10.8459
있을까	-10.8459
▁장동건	-10.8459
▁엽문	-10.8459
▁아쉬웠지만	-10.8459
▁이끌어	-10.8459
▁스킵	-10.8459
▁흑역사	-10.8459
▁전도연	-10.8459
▁오우삼	-10.8459
▁드래곤볼	-10.8459
▁몰락	-10.846
▁지브리	-10.8461
▁이민기	-10.8461
▁향수	-10.8461
▁학살	-10.8463
낀	-10.8464
▁복수극	-10.8464
랜드	-10.8465
▁더더욱	-10.8466
맹	-10.8466
▁모자란	-10.8466
▁않네	-10.8468
▁어떠한	-10.8469
▁편의	-10.8469
▁굉장한	-10.847
▁했나	-10.847
▁상영관	-10.8471
▁임신	-10.8472
▁성경	-10.8472
▁의미없는	-10.8473
▁흐지부지	-10.8474
▁죽었	-10.8475
▁만화를	-10.8475
긴했지만	-10.8477
▁초반부터	-10.8479
▁잼나요	-10.848
▁애니메이션이	-10.8481
▁만화가	-10.8481
으시	-10.8481
▁녹아	-10.8482
였네	-10.8483
재미있음	-10.8483
▁기타	-10.8484
▁알리	-10.8485
▁신세경	-10.8486
장군	-10.8487
▁믿지	-10.8491
▁새록새록	-10.8492
▁신데렐라	-10.8492
▁굳굳	-10.8494
▁그들을	-10.8494
▁작품중	-10.8495
부리	-10.8498
▁이탈리아	-10.8498
트리	-10.8504
▁변신	-10.8504
▁최민식	-10.8504
지않나	-10.8506
▁공포감	-10.8506
▁추천한다	-10.8507
▁슬펐다	-10.8508
▁장난감	-10.8511
놨네	-10.8511
▁명작이네요	-10.8511
애가	-10.8513
▁MBC	-10.8516
▁깜놀	-10.8517
▁본격	-10.8518
▁쏘우	-10.852
후반	-10.852
하죠	-10.8521
거같네요	-10.8521
▁미래를	-10.8524
작가님	-10.8525
▁특이한	-10.8526
평점은	-10.8529
▁유리	-10.853
▁주연의	-10.853
랑은	-10.8536
▁오그라들	-10.8536
이니까	-10.8537
▁만날	-10.8538
맘에	-10.8538
엿다	-10.8539
▁찍지	-10.8539
받아	-10.8539
▁결과는	-10.8544
▁도움이	-10.8544
▁남기고	-10.8549
▁생각나게	-10.8549
▁터지는	-10.855
▁빠지게	-10.8551
▁사실이	-10.8552
▁잔인하고	-10.8559
들이나	-10.856
일단	-10.8564
멀	-10.8566
▁빠졌	-10.8566
▁메세지가	-10.8573
었어	-10.8575
년동안	-10.8583
레스	-10.8586
턴	-10.8586
▁생겼	-10.8589
▁못해서	-10.859
▁막장이	-10.8592
모르고	-10.8593
▁하니	-10.8595
▁게스트	-10.8596
▁아류	-10.8597
스토리는	-10.8597
▁지루하기	-10.86
▁안나오고	-10.86
▁고등학생	-10.8601
▁무서웠	-10.8604
능력	-10.8607
▁못하네	-10.8607
방에서	-10.8608
지면	-10.8614
▁조연들	-10.8619
th	-10.8621
▁엔	-10.8622
안되는	-10.8623
▁밑	-10.8624
▁다른건	-10.8628
▁밝혀	-10.8629
▁다루	-10.8631
~♥	-10.8632
▁하던데	-10.8633
▁기회	-10.8635
▁듣기	-10.8636
▁아니네	-10.864
볼려고	-10.864
▁재밌게봤는데	-10.8641
▁평소	-10.8643
추억	-10.8644
럴	-10.8644
▁그시절	-10.8652
▁잊	-10.8654
▁선생	-10.8656
▁찾을	-10.8657
▁벗어나	-10.8657
▁한글	-10.866
▁이상으로	-10.866
믿	-10.8662
▁하지마라	-10.8663
▁게임을	-10.8668
▁여친	-10.8668
▁고뇌	-10.8669
▁비교하면	-10.8674
줘요	-10.8675
잖	-10.8679
▁불가	-10.8684
▁높은지	-10.8684
▁E	-10.8689
▁보고싶어	-10.8691
▁범인이	-10.8691
▁못본	-10.8691
▁조카	-10.8691
▁견	-10.8692
더라고요	-10.8692
보기싫	-10.8695
▁끝난다	-10.8697
년간	-10.8697
▁쿠	-10.8697
보라	-10.87
빡	-10.87
▁듬	-10.8701
▁날아	-10.8702
랴	-10.8702
▁애가	-10.8703
▁유행	-10.8705
뚫	-10.8708
컨	-10.8709
▁유치하기	-10.8709
▁엉터리	-10.8709
▁인상깊게	-10.8709
륵	-10.8709
▁매끄럽지	-10.8709
▁키아누	-10.8709
▁니콜라스	-10.8709
▁best	-10.8709
▁ᄇᄉ	-10.8709
▁보여줌	-10.871
://	-10.8711
▁극찬	-10.8711
▁잔잔하지만	-10.8712
▁2003	-10.8713
▁윌리스	-10.8713
▁드문	-10.8715
리의	-10.8716
▁탁월한	-10.8716
드리	-10.8717
▁영광	-10.8717
이라는게	-10.8717
▁카피	-10.8717
▁실패작	-10.8717
▁태양	-10.8717
촌	-10.8719
▁한번씩	-10.8721
마리	-10.8723
넘치는	-10.8723
▁심오	-10.8726
쫌	-10.8728
▁황정민	-10.8731
▁미장센	-10.8731
▁몬	-10.8735
▁의외의	-10.8736
▁함부로	-10.8737
▁K	-10.874
인물	-10.8741
▁정신병	-10.8741
할정도로	-10.8742
▁나오는거	-10.8742
▁w	-10.8742
▁어설퍼	-10.8743
한마디로	-10.8743
▁믿을게	-10.8744
▁싶으면	-10.8746
였네요	-10.8746
▁줘도	-10.8748
▁조정	-10.8749
려다가	-10.875
▁토니	-10.875
었네	-10.8751
▁낚여서	-10.8753
나면	-10.8757
▁말아먹은	-10.8758
▁강하게	-10.8759
▁멘탈	-10.8761
▁완죤	-10.8761
▁이정재	-10.8762
▁많은것을	-10.8762
▁아름다웠다	-10.8762
▁오글거려서	-10.8763
대의	-10.8765
▁유령	-10.8767
▁편견을	-10.8769
▁사회의	-10.8773
점도아깝다	-10.8774
▁사람마다	-10.8777
▁8.5	-10.8777
판을	-10.8778
▁컷	-10.878
▁할말을	-10.8781
▁다시보기	-10.8783
▁만세	-10.8783
▁예술가	-10.8785
▁피곤	-10.8791
▁스타일이	-10.8793
씨도	-10.8793
전이	-10.8794
▁집단	-10.8801
▁이영화보고	-10.8801
▁재밋는데	-10.8802
하지않고	-10.8802
▁허무함	-10.8802
는것을	-10.8802
▁혼자서	-10.8804
▁또봐도	-10.8805
▁낚였네	-10.8806
▁짱짱맨	-10.8807
▁찌질	-10.8808
지말자	-10.8808
▁마누라	-10.8811
▁ᄏᄏᄏᄏᄏᄏᄏᄏᄏᄏᄏ	-10.8814
▁믿어	-10.8819
▁우리나라의	-10.8819
▁교회	-10.8824
▁미쳤	-10.8825
다보니	-10.8827
▁결말까지	-10.8827
▁존스	-10.8831
것만으로도	-10.8845
▁단역	-10.8845
▁설정과	-10.8846
▁쓰레기네	-10.8847
▁된다는	-10.8848
뒤에	-10.8848
▁틈	-10.8849
없는데	-10.8851
▁영화내내	-10.8852
▁흘러가	-10.8857
▁어색함	-10.8857
거니	-10.8861
야할	-10.8868
▁아니네요	-10.8869
▁엿	-10.8871
▁마다	-10.8873
▁거다	-10.8873
곳에	-10.8874
그때	-10.8874
▁조폭영화	-10.8876
처리	-10.8879
▁아이들은	-10.8882
▁스릴이	-10.8883
▁생각했던	-10.8884
▁평가를	-10.889
▁하나님	-10.889
가족이	-10.8892
▁알아야	-10.8896
▁추가	-10.8897
▁출신	-10.8898
▁애들도	-10.8901
▁쓰레기는	-10.8907
▁즐거움	-10.8914
을뿐	-10.8916
할거	-10.8917
▁옛날영화	-10.8919
아직	-10.892
▁만듬	-10.892
▁도망	-10.8922
▁힘들어	-10.8922
가아니라	-10.8922
▁마음속에	-10.8923
▁소재에	-10.8924
이형	-10.8929
일때	-10.8935
▁불륜을	-10.8937
▁지경	-10.8937
점만점	-10.8941
될듯	-10.8941
삼류	-10.8947
릿	-10.8947
벅	-10.8948
스러워	-10.895
납	-10.8959
뿐인	-10.8959
낭	-10.896
▁배가	-10.8961
자들이	-10.8961
시에	-10.8962
충격	-10.8963
덴	-10.8965
핫	-10.8965
▁very	-10.8965
▁정당화	-10.8965
▁경의를	-10.8966
▁포함	-10.8966
▁가슴아픈	-10.8967
▁스크린	-10.8967
▁죽기전에	-10.8967
▁장혁	-10.8968
▁중학생	-10.8968
▁돈낭비	-10.8969
▁고마운	-10.8969
▁몰랐는데	-10.897
▁젊음	-10.897
▁울었습니다	-10.8971
▁개같은	-10.8971
▁기록	-10.8971
▁찬사를	-10.8972
▁존잼	-10.8973
▁우왕	-10.8973
▁안타깝네요	-10.8973
▁나오다니	-10.8974
▁필요없음	-10.8975
N	-10.8975
▁재현	-10.8976
▁레오	-10.8978
▁에러	-10.898
▁어케	-10.8981
낭비	-10.8983
▁재밌기만	-10.8984
칸	-10.8986
▁이야기에	-10.8986
꿀	-10.8987
초딩	-10.8987
▁피식	-10.8988
▁겉멋만	-10.8988
▁안좋은	-10.8988
▁상당한	-10.8989
혈	-10.899
귀여워	-10.899
개연성	-10.899
▁검색해	-10.899
cg	-10.8991
히어로	-10.8992
▁독립	-10.8993
까지만	-10.8995
위에	-10.8995
▁폰	-10.8996
ᄏᄏᄏᄏᄏᄏᄏᄏᄏ	-10.8998
▁도라에몽	-10.9
▁차태현	-10.9001
▁알려준	-10.9001
un	-10.9001
▁재미있어서	-10.9005
▁해외	-10.9009
겠다는	-10.901
▁킬링타임용도	-10.901
al	-10.9014
▁앉아	-10.9014
▁작가는	-10.9014
하느라	-10.9015
물로	-10.9018
브라	-10.9018
▁조기종영	-10.9019
▁배우와	-10.902
▁최초의	-10.9021
죽음	-10.9021
▁재미나게	-10.9027
▁돌리	-10.9028
▁놓은	-10.9032
▁클라스	-10.9033
형사	-10.9033
▁잼없	-10.9035
▁슬프네요	-10.9036
▁꺼내	-10.9037
볼수있	-10.9038
▁재밌었고	-10.9039
▁없었는데	-10.9041
좋겠다	-10.9043
▁되나	-10.9044
▁아빠가	-10.9044
으러	-10.9047
▁믿음	-10.9048
▁끝은	-10.905
▁여배우가	-10.9051
▁웃음과	-10.9053
저는	-10.9054
트로	-10.9054
아라	-10.9055
▁볼만한데	-10.9057
▁클라라	-10.9057
▁잼없음	-10.9059
▁지루함이	-10.9059
▁부자	-10.9059
▁슬퍼요	-10.906
편으로	-10.9061
▁같네	-10.9061
▁더럽다	-10.9063
하더니	-10.9063
▁좋아하네요	-10.9063
▁뻥	-10.9064
줄알았	-10.9065
▁최고최고	-10.9066
▁살리	-10.9068
▁답답해서	-10.9069
▁졸작이다	-10.9069
설명	-10.9071
▁현실에서	-10.9074
▁J	-10.9076
▁ᄃ	-10.9076
▁새로	-10.9077
▁재미만	-10.9081
▁모르나	-10.9085
보셈	-10.9089
당하는	-10.909
▁등록	-10.9093
▁훈훈	-10.9097
것도아니고	-10.9102
▁뽑아	-10.9105
▁관심을	-10.9106
▁일본이	-10.9106
▁뛰어나	-10.911
▁>	-10.9112
▁대학생	-10.9118
마저도	-10.9119
▁장면만	-10.9119
액션영화	-10.9119
▁남자를	-10.912
▁영화적	-10.912
▁첨에	-10.912
볼까	-10.9121
▁머리를	-10.9128
▁숙	-10.9134
아쉽	-10.9136
▁설정에	-10.9137
▁캐릭터와	-10.9139
▁만으로도	-10.914
경이	-10.9142
같네	-10.9145
상이	-10.9147
낚	-10.9149
▁퀄리티가	-10.9153
▁넘어가	-10.9154
댄	-10.9155
것같습니다	-10.9157
로우	-10.9159
▁쓰레기임	-10.9162
까지도	-10.9164
좋앗	-10.9165
▁재주	-10.9169
▁버릴	-10.9173
▁주제는	-10.9174
▁액션의	-10.9175
▁문제는	-10.9177
성은	-10.9181
▁돌아오	-10.9182
▁힘들게	-10.9182
이었고	-10.9183
▁김혜수	-10.9183
▁하던가	-10.9183
▁얻어	-10.9184
▁놀라	-10.9185
▁그대	-10.9188
맞고	-10.9189
부를	-10.919
▁라스트	-10.9191
▁선택한	-10.9191
▁아니라서	-10.9193
렬	-10.9194
텐	-10.9197
▁지키	-10.92
앞으로	-10.9202
▁개똥	-10.9207
▁같지만	-10.9212
떼	-10.9212
▁즐길	-10.9212
봤습니다	-10.9218
세이	-10.9218
▁줬	-10.9222
▁항	-10.9222
▁정주행	-10.9223
▁던져	-10.9226
▁아닌지	-10.9227
밍	-10.9228
▁끝판왕	-10.9228
▁홧팅	-10.9228
▁눈요기	-10.9229
▁크리스찬	-10.9229
▁생각한	-10.9229
▁좋아하시는	-10.923
▁2004	-10.9231
♥♥♥♥	-10.9231
▁성찰	-10.9231
▁끄는	-10.9231
창있네	-10.9232
▁혹평	-10.9233
▁아이러니	-10.9235
▁불행	-10.9235
▁세계관	-10.9236
이아니라	-10.9239
▁대표적인	-10.9239
▁몇번이나	-10.924
▁흐름이	-10.924
▁억지설정	-10.9241
▁볼만했는데	-10.9241
▁어렸을적	-10.9243
▁도중에	-10.9244
휘	-10.9244
▁재밌당	-10.9245
▁유혹	-10.9246
저런	-10.9246
▁알겠지만	-10.9246
▁남발	-10.9248
정보	-10.9249
뇌	-10.925
폴	-10.9252
그래픽	-10.9252
겁니까	-10.9256
▁앞서	-10.9257
덜	-10.9258
▁다세포소녀	-10.9258
▁개봉을	-10.9258
촬영	-10.9262
tv	-10.9264
▁아프리카	-10.9264
▁임청하	-10.9264
▁시원한	-10.9269
▁끔찍	-10.9271
▁다운로드	-10.9271
▁매력은	-10.9271
였다니	-10.9272
▁처음이네요	-10.9275
▁글쎄요	-10.9275
감동도	-10.9276
▁즉	-10.9277
!!!!!!!	-10.928
▁무리수	-10.9282
▁나와도	-10.9284
▁납치	-10.9284
영상미	-10.9284
▁구경	-10.9285
▁김태희	-10.9285
▁저러	-10.9285
▁넘는	-10.929
▁들어도	-10.929
▁말라	-10.9294
▁시나리오도	-10.9296
▁케	-10.9297
▁행복해	-10.93
▁분명히	-10.93
▁내놓	-10.9301
▁,,	-10.9301
▁발음	-10.9301
▁니네	-10.9302
▁밑도	-10.9302
▁더러워	-10.9303
▁터지	-10.9306
▁대사를	-10.9307
▁무서울	-10.9309
▁한번쯤은	-10.9309
▁꿈꾸는	-10.931
▁백배	-10.931
시네요	-10.9313
la	-10.9316
치면	-10.9317
울음	-10.9317
분들은	-10.9317
▁자위	-10.9317
▁싶지만	-10.9318
점주고	-10.9318
실력	-10.9319
▁잔잔	-10.9321
▁만들었네	-10.9321
▁싹	-10.9323
성과	-10.9324
▁가족들	-10.9325
끼고	-10.9325
작품이	-10.9326
좀비	-10.9327
이면서	-10.9327
▁충격이	-10.9328
아쉽다	-10.933
▁잡고	-10.9333
▁존재하는	-10.9336
해줘서	-10.9336
▁즐기	-10.9337
기대하고	-10.9338
▁믿는	-10.9338
▁남는건	-10.9339
▁메시지가	-10.9339
자들의	-10.934
▁배려	-10.9341
상태	-10.9342
낮은	-10.9343
▁그지같은	-10.9344
▁좋아한다	-10.9346
괜찮은	-10.9347
엑	-10.9348
▁당시에는	-10.9349
▁대사는	-10.935
▁이뻐	-10.935
▁고수	-10.9352
이었	-10.9353
▁과거를	-10.9353
▁마지막장면	-10.9355
주의자	-10.9357
▁예고편이	-10.9362
▁돈과	-10.9366
싶어서	-10.9367
한건지	-10.9368
아나	-10.9368
겠다고	-10.9369
오르	-10.9371
는줄	-10.9373
▁연기한	-10.9376
▁일본판	-10.9377
스릴	-10.9378
▁매력있는	-10.9378
▁안남	-10.9384
이유는	-10.9386
▁스토리지만	-10.9387
▁있나요	-10.939
놈은	-10.939
만들지	-10.939
▁거슬리	-10.9391
^^;	-10.9395
▁중심	-10.9395
▁무게	-10.9396
이요	-10.94
▁주먹	-10.9404
시오	-10.9404
세대	-10.9406
▁뿌리	-10.9411
▁즐거웠	-10.9414
▁예술성	-10.9418
▁되어서	-10.942
들로	-10.9422
▁공포도	-10.9422
▁한대	-10.9424
렷	-10.9425
하라는	-10.9426
▁형제	-10.9427
▁무한	-10.9427
▁있어도	-10.9428
▁캐릭터의	-10.9428
▁벌어	-10.9428
▁좋아하고	-10.9429
▁적이	-10.9431
▁조용	-10.9432
▁다크	-10.9437
▁ᄍ	-10.9438
▁상실	-10.9441
정도의	-10.9441
어색	-10.9445
▁주제도	-10.9446
▁it	-10.945
▁영화라는게	-10.9453
▁분위기에	-10.9453
없지만	-10.9454
▁작품들	-10.946
▁성의	-10.9463
▁무료	-10.9463
▁않아도	-10.9466
▁참고로	-10.9471
▁샤	-10.9475
▁덤	-10.9477
▁다시보게	-10.9478
▁표정연기	-10.9481
▁덕	-10.9484
일을	-10.9485
▁돈은	-10.9485
▁욕하는	-10.9486
▁번을	-10.949
in	-10.9493
찐	-10.9496
▁200	-10.9496
컬	-10.9496
▁석	-10.9496
쟈	-10.9498
▁섞어	-10.9498
▁드림웍스	-10.9499
▁똑바로	-10.9499
▁미야자키	-10.9499
▁어둡고	-10.9499
▁태어난	-10.9499
▁있겠지	-10.9499
▁사로잡	-10.9499
▁300	-10.9499
이영화는	-10.9499
▁정신나간	-10.9499
▁문득	-10.95
▁짐승	-10.95
▁가해자	-10.9501
▁자본주의	-10.9501
▁지나친	-10.9501
▁절제된	-10.9501
▁접근	-10.9501
▁출발	-10.9502
▁절반	-10.9502
▁마틴	-10.9502
▁일본영화는	-10.9504
따윈	-10.9504
싶네요	-10.9506
▁스토리라인	-10.9507
▁대단히	-10.9507
▁일탈	-10.9507
외엔	-10.9508
했었	-10.9509
▁훌륭함	-10.9509
있는영화	-10.951
▁먹먹하다	-10.9511
▁않으면	-10.9511
▁발레	-10.9512
▁코미디는	-10.9512
▁장면과	-10.9512
▁조차	-10.9514
널	-10.9516
▁전락	-10.9516
▁중간부터	-10.9516
▁남자라면	-10.9517
솔	-10.952
▁부디	-10.952
▁돋보인다	-10.952
▁구분	-10.952
▁강조	-10.9522
▁송혜교	-10.9522
▁오인혜	-10.9522
▁차마	-10.9526
다만	-10.9526
▁슬프지만	-10.9527
▁웃기지	-10.9528
▁인종차별	-10.9529
▁솔직한	-10.9529
▁예쁘게	-10.9531
▁오글거리고	-10.9532
▁초등학교때	-10.9533
▁외국영화	-10.9534
▁없구나	-10.9535
▁존재한다	-10.9535
▁구원	-10.9535
튀	-10.9536
▁봐줄	-10.9537
틈	-10.9538
▁명성을	-10.9539
▁성룡이	-10.9539
필름	-10.954
분만	-10.9541
마냥	-10.9543
▁감수성	-10.9543
했더니	-10.9544
▁재미있네	-10.9544
▁돈만	-10.9545
다시봐도	-10.9545
▁드라마네요	-10.9546
▁존경합니다	-10.9548
▁둔	-10.9548
▁The	-10.9549
▁고맙습니다	-10.9549
별루	-10.9549
▁사랑으로	-10.9549
▁7.5	-10.955
▁해주세요	-10.955
▁부르는	-10.955
▁아까워요	-10.9552
▁학생들	-10.9552
▁나참	-10.9554
▁복잡한	-10.9554
▁영화감독	-10.9554
치고는	-10.9555
겠냐	-10.9558
줘도	-10.9559
필요없	-10.9559
▁농	-10.9561
나왔으면	-10.9562
묘사	-10.9562
언제	-10.9563
▁감옥	-10.9565
▁출현	-10.9566
▁잃지	-10.9566
▁느낌도	-10.9568
▁높네	-10.957
▁오글거리	-10.9573
▁매력적이다	-10.9573
▁경제	-10.9576
▁소지섭	-10.9576
▁올라	-10.9578
봣음	-10.9581
당신	-10.9583
▁지루하기만	-10.9583
드라마를	-10.9585
▁대실망	-10.9585
▁수고	-10.9585
역의	-10.9586
▁예산	-10.9586
..............	-10.9589
▁더럽고	-10.9592
저도	-10.9592
▁비교해	-10.9593
▁아쉽고	-10.9594
▁영화제목	-10.9595
▁인상적이	-10.9597
▁철학적인	-10.9602
줄은	-10.9602
이젠	-10.9606
▁예고편만	-10.9606
▁배경과	-10.9607
▁역할을	-10.9609
갖	-10.9611
▁울었던	-10.9613
티비	-10.9619
▁기억될	-10.962
▁혜	-10.9622
보기엔	-10.9626
주네	-10.9627
맞아	-10.9627
▁끝날때	-10.963
▁뭉	-10.963
▁이유로	-10.9631
▁무엇	-10.9632
▁바꾼	-10.9632
▁나은듯	-10.9633
▁정말정말	-10.9635
때메	-10.9635
▁t	-10.9637
주인공이	-10.9638
▁찾아볼	-10.9639
돌이	-10.9644
▁속은	-10.9644
▁몇년	-10.9644
심리	-10.965
▁웃음만	-10.9651
▁망쳐놓	-10.9652
▁말해	-10.966
모습이	-10.9666
▁안했는데	-10.9667
▁강렬	-10.9667
윽	-10.9667
드라마가	-10.9677
▁확실한	-10.9677
▁효	-10.9677
▁저게	-10.9678
갔으면	-10.968
상영	-10.9682
▁공감을	-10.9684
▁중국인	-10.9684
없어요	-10.9686
▁머가	-10.9698
▁안되나	-10.9701
사진	-10.9702
네유	-10.9705
▁첩보	-10.9707
▁♥	-10.9711
▁몸을	-10.9712
▁공포영화가	-10.9713
18	-10.9716
▁우리나라에	-10.9722
▁별로인	-10.9723
▁잘만들었	-10.9728
하겠	-10.9729
!!!!!!!!	-10.9734
▁다큐를	-10.9736
번을	-10.9739
▁한숨	-10.9743
▁재수없	-10.9744
▁머리에	-10.9751
좋아서	-10.9751
▁동심	-10.9752
▁보셈	-10.9753
▁말하려는	-10.9755
등급	-10.9755
다들	-10.9756
하는듯	-10.9756
▁노력이	-10.9761
▁따라한	-10.9763
▁신기한	-10.9766
▁보물	-10.9767
▁개인적으로는	-10.9768
▁몸이	-10.9774
이유가	-10.9775
▁두려움	-10.9777
▁뜨거운	-10.9777
▁예쁨	-10.9777
▁용두사미	-10.9777
▁파워레인저	-10.9777
푼	-10.9777
▁팀버튼	-10.9777
▁고딩	-10.9777
▁비싼	-10.9777
▁뉴욕	-10.9778
분들이	-10.9778
▁빠지	-10.9778
배속으로	-10.9778
드려요	-10.9778
▁화려	-10.9779
▁미안해	-10.9781
▁개나	-10.9781
▁초능력	-10.9782
ᄍ	-10.9783
▁넘어선	-10.9783
다리	-10.9785
▁않았음	-10.9786
▁없군	-10.9786
▁못하	-10.9786
▁울었	-10.9787
▁짧게	-10.979
▁되었는데	-10.979
▁후기	-10.9791
▁느껴지	-10.9792
▁어쩌	-10.9795
▁터져	-10.9796
▁받아들이	-10.9799
▁주인공을	-10.9801
▁송지효	-10.9801
▁중학교때	-10.9801
모를	-10.9803
▁현실적으로	-10.9803
▁광기	-10.9804
잊	-10.9804
▁사실적으로	-10.9804
번이나	-10.9805
▁봐주	-10.9805
▁똥을	-10.9805
▁최고였습니다	-10.9809
▁인간적인	-10.9809
미는	-10.981
부분도	-10.9811
▁수작이	-10.9812
들한테	-10.9812
콜	-10.9814
▁부럽다	-10.9815
▁생각하지	-10.9816
장면에서	-10.9817
▁이쁘게	-10.9818
▁와닿는	-10.9818
뉴	-10.9819
재미는	-10.982
▁향	-10.982
▁영상미는	-10.982
▁포켓몬	-10.9821
▁힘내세요	-10.9822
챙겨	-10.9822
▁만드	-10.9824
불륜	-10.9824
▁이연희	-10.9828
▁실패한	-10.9828
21	-10.9829
죽이고	-10.983
▁미국판	-10.9831
▁이정도로	-10.9832
▁재밌게본	-10.9833
▁잔잔하면서도	-10.9833
▁캐스팅도	-10.9834
▁전부다	-10.9835
▁메시지를	-10.9836
▁이해하지	-10.9837
아는	-10.9838
▁먹먹한	-10.984
일에	-10.984
▁아침에	-10.9843
▁망쳐	-10.9847
달까	-10.985
▁팍팍	-10.9856
▁즐겁고	-10.9856
▁볼만해요	-10.9857
▁택시	-10.9861
안나	-10.9862
▁아카데미	-10.9862
▁제시	-10.9862
▁틈이	-10.9863
▁성유리	-10.9863
▁불편함	-10.9864
▁선동영화	-10.9865
▁였다	-10.9866
▁엉성함	-10.9867
▁안된	-10.9868
▁조명	-10.987
▁멀리	-10.9873
▁희망이	-10.9873
▁코드가	-10.9874
▁자유를	-10.9875
▁엉망이	-10.9879
▁표현했다	-10.9879
약간	-10.988
▁분위기도	-10.9882
▁하긴	-10.9882
왔던	-10.9883
▁나아	-10.9883
님은	-10.9884
▁별거	-10.9886
▁허접하다	-10.9888
▁연출을	-10.9888
저질	-10.9889
▁최대의	-10.989
▁별하나	-10.989
▁몰입되	-10.9894
▁달아	-10.9896
었을텐데	-10.9896
유머	-10.9897
년의	-10.9898
쪽으로	-10.99
▁향해	-10.9901
▁몰아	-10.9902
▁지지	-10.9903
▁대단하	-10.9908
인간들	-10.9911
안돼	-10.9914
▁섹시한	-10.9915
▁읽은	-10.9917
▁다음으로	-10.9919
줘야지	-10.9923
▁구성과	-10.9924
일세	-10.9925
▁안좋아	-10.9925
▁쩔	-10.9927
▁맘이	-10.9927
어리	-10.993
로서의	-10.9931
▁하려는	-10.9934
▁전편의	-10.9937
너무너무	-10.9938
이건뭐	-10.9939
▁재밌게봤다	-10.9941
▁스케일이	-10.9949
▁이상함	-10.9956
▁블루	-10.996
꺼면	-10.9961
본사람	-10.9963
▁너무재밌어요	-10.9966
▁거슬	-10.9966
할려고	-10.9967
면이	-10.9968
소름	-10.9969
가슴이	-10.9969
▁남자들	-10.997
겐	-10.9974
▁환자	-10.9974
▁별루다	-10.9974
▁갔는데	-10.9976
▁나온다는	-10.9978
▁여자친구	-10.9979
▁그래픽이	-10.9981
▁나니	-10.9982
▁행복을	-10.9984
▁탄	-10.9985
▁한장면	-10.9988
코드	-10.999
그게	-10.9992
▁목적	-10.9993
▁최후	-10.9995
▁나왔을	-10.9996
▁외치	-10.9996
▁광팬	-10.9998
▁아니냐	-11.0001
▁작위적	-11.0002
▁엄마의	-11.0002
성의	-11.0003
읽	-11.0003
년을	-11.0004
▁보고싶어요	-11.0006
주기도	-11.0006
▁방식	-11.0009
▁영화란	-11.0014
▁말았	-11.0015
▁멋졌	-11.0018
하나요	-11.0019
여야	-11.002
▁거야	-11.0021
▁이번에	-11.0022
평점을	-11.0022
▁지루하네	-11.0024
기법	-11.0025
들이랑	-11.0026
▁기대되는	-11.0026
이런거	-11.0026
▁강제	-11.0028
다운받	-11.0029
▁in	-11.0033
슬프	-11.0035
▁만나는	-11.0036
▁다른거	-11.0037
팬이	-11.0038
▁짱임	-11.0038
전개가	-11.004
일수도	-11.0041
▁감정선	-11.0041
▁빛이	-11.0042
▁것들을	-11.0042
▁채우	-11.0045
▁허탈	-11.0046
▁나을	-11.0046
▁배경도	-11.0046
▁노력한	-11.0047
▁알겠	-11.0049
▁잠들	-11.005
it	-11.0053
▁가을	-11.0053
▁워	-11.0054
▁않으	-11.0054
▁좋았어	-11.0056
어야지	-11.0058
균	-11.0058
렀	-11.006
▁고스란히	-11.0062
▁찝찝한	-11.0062
▁클리셰	-11.0062
넷	-11.0062
얄	-11.0062
▁양동근	-11.0062
▁엉덩이	-11.0062
▁김강우	-11.0062
▁어우러진	-11.0062
▁불후의	-11.0062
▁이범수	-11.0062
▁흥미롭고	-11.0063
▁잃어버린	-11.0063
▁다니엘	-11.0063
으로도	-11.0063
▁은퇴	-11.0063
아쉬웠	-11.0063
▁에릭	-11.0064
▁심각한	-11.0064
하기까지	-11.0064
▁움직이는	-11.0064
▁추락	-11.0064
드가	-11.0064
▁활용	-11.0066
▁지들끼리	-11.0068
▁여왕	-11.0069
▁그럼에도	-11.0069
...;;;	-11.0071
▁말았어야	-11.0071
▁밝	-11.0072
점대라니	-11.0074
었을	-11.0074
▁불법	-11.0075
▁좋아한다면	-11.0076
▁심히	-11.0077
▁않았으면	-11.0079
인지는	-11.008
▁잘생기고	-11.0081
▁위험	-11.0081
▁아쉽긴	-11.0086
▁관객에게	-11.0086
▁알게해준	-11.0087
▁주상욱	-11.0087
감은	-11.0088
▁만들려고	-11.0088
▁반전영화	-11.0089
▁그런영화	-11.009
▁해피	-11.0092
▁아동용	-11.0093
▁어린이용	-11.0093
▁서프라이즈	-11.0094
▁인터뷰	-11.0094
떡	-11.0094
줬으면	-11.0096
▁결말에	-11.0099
때는	-11.01
▁전쟁이	-11.0101
▁노래를	-11.0102
인거같다	-11.0106
활	-11.0106
느껴	-11.0107
▁신념	-11.011
▁연상	-11.0111
▁유지태	-11.0111
뽕	-11.0112
리지	-11.0113
▁보진	-11.0115
▁다니는	-11.0115
흐름	-11.0115
▁조승우	-11.0115
▁신민아	-11.0116
합시다	-11.0116
▁2013	-11.0117
▁어이없어서	-11.0118
▁아프	-11.0118
▁평점조절	-11.012
▁없었으면	-11.0121
▁물건	-11.0121
▁일어나	-11.0122
시간낭비	-11.0122
좋았어요	-11.0123
영웅	-11.0124
▁빌리	-11.0124
진정한	-11.0125
먼저	-11.0125
▁짱나	-11.0126
▁영원	-11.0127
▁경기	-11.0132
관련	-11.0132
▁목숨	-11.0133
▁감흥이	-11.0133
훌륭한	-11.0134
▁난국	-11.0134
영환	-11.0137
▁패션	-11.0137
할지	-11.0138
▁이혼	-11.0138
▁던지는	-11.0139
▁전투씬	-11.0142
말을	-11.0142
▁황금	-11.0142
▁수준이하	-11.0143
▁쏴	-11.0144
▁없었고	-11.0146
식의	-11.0146
들보다	-11.0147
▁후반에	-11.0149
이쁘고	-11.0151
아이가	-11.0153
▁정도다	-11.0155
▁예뻐	-11.0158
▁돌려줘	-11.0159
▁괜찮아	-11.0159
▁산만한	-11.0161
▁한숨만	-11.0168
구리	-11.0168
▁재미있었고	-11.0169
▁좋아해요	-11.0169
▁보여주지	-11.0169
▁전쟁을	-11.0169
▁보이지만	-11.0169
▁운동	-11.0172
하나로	-11.0173
...;;	-11.0173
웃기고	-11.0181
▁엄마랑	-11.0182
어느	-11.0182
있냐	-11.0182
점에서	-11.0184
▁헤어	-11.0185
▁저희	-11.0185
▁모르겟다	-11.0186
▁무서웠다	-11.0187
었나	-11.019
벗	-11.019
▁허무하게	-11.0193
되면서	-11.0197
장면도	-11.0198
시면	-11.0199
전을	-11.02
▁잘생겼	-11.0202
▁메리	-11.0202
▁심리를	-11.0203
만듬	-11.0204
▁짜증나네	-11.0204
▁조금씩	-11.0209
▁죽을뻔	-11.0209
▁싫은	-11.0209
▁죽인다	-11.0211
이하	-11.0211
배는	-11.0211
..."	-11.0213
▁강력추천	-11.0213
♡♡	-11.0215
대장	-11.0215
▁미국이	-11.0217
이구만	-11.0218
▁제작사	-11.0219
..2	-11.0219
할수있는	-11.0225
▁안되서	-11.0226
▁베리	-11.0227
방울	-11.0227
하듯	-11.0228
▁남았다	-11.023
▁기존	-11.0233
▁애매	-11.0234
▁않았나	-11.0235
▁괜찮네	-11.0238
▁개념	-11.0239
으세요	-11.0241
라기	-11.0245
▁봤었다	-11.0246
▁그지같	-11.0248
머니	-11.0251
▁위에	-11.0254
이해가	-11.0255
들리	-11.0256
다는걸	-11.0257
같애	-11.0259
지마세요	-11.026
▁익	-11.0262
▁어우	-11.0265
보고있어요	-11.0265
▁나왔음	-11.0266
장에서	-11.0267
▁숲	-11.0271
▁내고	-11.0272
▁영상으로	-11.0273
인지도	-11.0275
습니까	-11.0277
▁보는사람	-11.0277
▁여전	-11.0279
불가	-11.0281
▁조지	-11.0282
▁비중	-11.0284
꺼라	-11.0285
엇어요	-11.0289
▁태어나	-11.0291
▁액션에	-11.0292
하구만	-11.0294
만족	-11.0294
▁막장으로	-11.0299
바다	-11.0301
만들고	-11.0301
순위	-11.0301
▁외로움	-11.0305
뛰	-11.0306
▁천만	-11.0308
▁아오이	-11.0309
▁보러가	-11.0312
많다	-11.0317
▁약해	-11.0321
▁하는것	-11.0325
▁밋밋	-11.0326
▁되돌아	-11.0327
▁정이	-11.0328
▁봤다는	-11.0331
▁충격을	-11.0331
▁부분을	-11.0332
▁일어날	-11.0337
만들엇	-11.0337
▁안성기	-11.0337
얘	-11.0339
▁재밌는영화	-11.0339
▁주제에	-11.0342
▁만든것	-11.0342
는것이	-11.0343
▁신선하	-11.0345
속으로	-11.0345
▁쓰레기들	-11.0348
▁촌	-11.0349
▁미술	-11.0352
▁쫓	-11.0353
▁리메이크작	-11.0353
칙	-11.0355
▁날리	-11.0355
혐	-11.0356
핀	-11.0356
▁단편영화	-11.0356
▁웹툰	-11.0356
▁펭귄	-11.0356
뚜	-11.0356
▁ebs	-11.0356
▁러셀	-11.0356
▁퍼즐	-11.0357
▁언론	-11.0358
▁놀라울	-11.0358
▁알았더니	-11.0359
▁가끔씩	-11.0359
▁일깨워주는	-11.0359
▁빠져드는	-11.0359
▁구성은	-11.036
▁자세히	-11.036
▁지났지만	-11.0361
▁고찰	-11.0361
▁우익	-11.0362
▁후한	-11.0363
▁지루했어요	-11.0363
▁난잡	-11.0363
▁미쳐	-11.0364
▁물씬	-11.0365
▁남자와	-11.0365
보지마라	-11.0366
▁총알	-11.0366
▁주목	-11.0368
▁나누	-11.0369
▁영화판	-11.0369
▁깔끔하고	-11.037
▁엉성하다	-11.0372
▁않았을까	-11.0372
▁심심	-11.0373
▁중반부	-11.0373
하는건지	-11.0374
▁살았	-11.0374
▁서스펜스	-11.0375
쩌	-11.0376
▁그이상	-11.0376
▁허술하고	-11.0376
거든요	-11.0376
▁인물의	-11.0376
▁무슨말이	-11.0376
▁웃게	-11.038
야말로	-11.038
▁무서워서	-11.0381
▁최고였어요	-11.0381
▁생각나네요	-11.0382
▁뭔가요	-11.0383
▁드라마도	-11.0384
▁존내	-11.0388
▁임수정	-11.0389
▁일요일	-11.0389
느니	-11.039
▁뻔해서	-11.039
▁조용히	-11.0392
▁성우가	-11.0393
엿음	-11.0393
거에	-11.0394
척하는	-11.0394
▁세월	-11.0396
▁서극	-11.0396
▁기차	-11.0397
▁찾고	-11.0397
취향	-11.0398
▁시선으로	-11.0398
▁때문이다	-11.0398
▁것만으로도	-11.0398
▁화려하고	-11.0399
더럽게	-11.0399
▁집어	-11.0399
▁지루함의	-11.0401
▁강지환	-11.0404
▁불만	-11.0404
▁특징	-11.0404
▁저거	-11.0405
타임	-11.0406
콘	-11.0408
▁심심한	-11.0408
ll	-11.0408
▁28	-11.0408
옷	-11.0409
▁훌륭하고	-11.0409
▁있는듯	-11.0409
▁환타지	-11.0411
▁됬	-11.0411
▁뚝뚝	-11.0411
▁후회함	-11.0412
▁그만좀	-11.0412
▁메인	-11.0413
...............	-11.0413
신의	-11.0413
▁영화계의	-11.0414
▁많지만	-11.0414
부대	-11.0416
톱	-11.0416
▁연기까지	-11.0418
▁안봐	-11.0418
코메디	-11.042
아줌마	-11.0421
씨를	-11.0422
도없는	-11.0422
▁영화자체는	-11.0423
▁됐는데	-11.0424
▁그들은	-11.0424
▁말해주는	-11.0426
예능	-11.0426
ᄏᄏᄏᄏᄏᄏᄏᄏ	-11.0427
램	-11.0427
▁많았	-11.0427
▁마음의	-11.0428
그자체	-11.0428
▁국어책	-11.0429
습니당	-11.0433
▁뻔해	-11.0436
▁여튼	-11.0436
▁위험한	-11.0437
el	-11.0437
▁지겨워	-11.0437
▁진부함	-11.0437
▁말하면	-11.0438
겨울	-11.0438
▁걸어	-11.0439
마음에	-11.0439
▁어울려	-11.044
▁증말	-11.044
▁나왔는데	-11.0446
▁망쳤다	-11.0447
잇고	-11.0447
동물	-11.0449
▁재미있다고	-11.045
만함	-11.0451
▁모야	-11.0451
▁ᄏᄏᄏᄏᄏᄏᄏᄏᄏᄏ	-11.0453
▁걸리	-11.0454
▁가져다	-11.0455
▁취향은	-11.0456
▁위기	-11.0457
영화였다	-11.046
▁이완	-11.0463
▁재미있었던	-11.0463
▁그림체	-11.0465
자연	-11.0465
하나하나	-11.0466
드립	-11.0467
한건가	-11.0469
이쁘다	-11.0469
▁건강	-11.0471
▁쓰렉	-11.0473
▁무어	-11.0475
데로	-11.0475
ch	-11.0475
▁손가락	-11.0477
▁먹었	-11.0478
빠지	-11.0483
▁방법이	-11.0485
▁티가	-11.0485
▁감동적으로	-11.0487
▁가치를	-11.0487
▁학	-11.0489
하지마세요	-11.049
▁감동도없고	-11.0491
▁찬양	-11.0497
교육	-11.0503
할수도	-11.0503
막히	-11.0508
▁떨어	-11.0512
급도	-11.0512
▁으아	-11.0518
하더라도	-11.0518
am	-11.0519
▁g	-11.052
▁전작의	-11.0524
번도	-11.0524
▁보지말	-11.0524
▁플레이	-11.0525
하더군요	-11.0527
했다가	-11.0529
▁아파	-11.0529
▁정치적	-11.0535
나봐요	-11.0535
룡	-11.0536
le	-11.0538
▁않는데	-11.0538
▁개인의	-11.0539
▁나온다고	-11.054
▁실사	-11.0543
하라고	-11.0543
▁나가는	-11.0544
▁말만	-11.0544
곳에서	-11.0545
▁성우들	-11.0547
▁누구도	-11.0547
영화제	-11.0548
▁그럴듯	-11.0552
▁시간대	-11.0553
▁부른	-11.0555
였으나	-11.0557
▁잇는	-11.0559
▁만들어준	-11.056
▁법정	-11.0561
▁영화에서는	-11.0564
▁받아서	-11.0566
▁한수	-11.0568
뭔지	-11.0569
▁슬픔이	-11.0573
▁어울	-11.0573
▁기억도	-11.0574
▁장애	-11.0575
▁잘함	-11.0575
▁편집이	-11.0576
ol	-11.0577
▁닮았	-11.0577
▁왕가위	-11.0578
▁전설이	-11.0579
▁열광	-11.0581
▁인물이	-11.0581
사고	-11.0586
▁--	-11.0587
▁우려먹	-11.059
▁상관	-11.0592
▁불가능	-11.0592
▁벨	-11.0596
▁따분	-11.0596
▁삼가	-11.0599
▁별점을	-11.0601
같았	-11.0605
▁생생	-11.0606
오고	-11.0606
드립니다	-11.0611
▁기대도	-11.0613
소장	-11.0614
▁이연걸의	-11.0615
▁보고있어요	-11.0619
맞추	-11.0619
▁거냐	-11.0621
신분들	-11.0623
▁소름돋는	-11.0624
▁비교가	-11.0626
▁때의	-11.0629
내리	-11.063
▁튀	-11.0631
▁먼지	-11.0632
▁감독님의	-11.0636
▁번역	-11.0639
▁달고	-11.0639
▁차이가	-11.0643
끼들	-11.0647
▁저기	-11.0647
▁초딩이	-11.0648
▁정신을	-11.065
▁끼워	-11.0651
▁만났	-11.0656
▁화면이	-11.0656
▁보고있는	-11.0656
▁특수	-11.0656
뮤	-11.0657
가자	-11.0658
못해	-11.0658
쩍	-11.0658
▁아쉬울	-11.0658
▁귀찮	-11.0659
▁ocn	-11.0659
▁내러티브	-11.0659
▁매트릭스	-11.0659
▁멘붕	-11.0659
▁보냅니다	-11.0659
▁오리지널	-11.0659
人	-11.0659
긔	-11.0659
▁저절로	-11.0659
▁하이킥	-11.066
▁록키	-11.066
▁어울린다	-11.066
▁재발견	-11.066
▁새롭게	-11.066
▁간첩	-11.066
▁증거	-11.0661
▁잃고	-11.0661
^.^	-11.0661
▁영화관에	-11.0661
▁대표작	-11.0662
▁역쉬	-11.0662
▁재료	-11.0663
▁기대됩니다	-11.0664
▁어쩌라고	-11.0665
▁애니가	-11.0666
자면	-11.0667
▁만들어주세요	-11.0667
봤다가	-11.0668
123	-11.0669
▁원표	-11.0669
▁언급	-11.067
▁전작에	-11.0671
▁묘미	-11.0671
▁헐크	-11.0674
▁말이필요없는	-11.0674
▁꿈이	-11.0674
▁해도해도	-11.0675
~~!	-11.0676
이군	-11.0676
▁시나리오를	-11.0677
▁요약	-11.0677
▁보다보다	-11.0677
▁공감가는	-11.0677
▁실소	-11.0677
▁내보내	-11.0678
▁컨저링	-11.0678
▁아름답	-11.0679
▁담아내	-11.0681
▁이나영	-11.0683
▁예상치	-11.0684
▁잠수함	-11.0686
▁몰랐	-11.0688
▁별로였음	-11.069
▁각자	-11.069
재미가	-11.069
▁필수	-11.0692
해준다	-11.0692
▁고발	-11.0693
▁헛웃음만	-11.0693
▁쏙	-11.0693
▁어색하다	-11.0694
물에	-11.0695
영화관에서	-11.0695
▁구리다	-11.0696
▁주인	-11.0698
▁별한개도	-11.0699
▁다크나이트	-11.0701
쿨	-11.0701
▁달콤한	-11.0702
걸까요	-11.0705
보여주	-11.0706
▁사망	-11.0706
▁미국에서	-11.0706
▁레이첼	-11.0708
액션이	-11.0709
채널에서	-11.0709
▁익숙	-11.0711
▁요소를	-11.0712
칭	-11.0713
▁수애	-11.0713
▁ᄏᄏᄏᄏᄏᄏᄏᄏᄏᄏᄏᄏᄏᄏ	-11.0714
▁않았고	-11.0714
▁모여	-11.0715
▁ᄅᄋ	-11.0716
▁http	-11.0716
▁부럽	-11.0717
네이버	-11.0718
▁뻔히	-11.0719
하는것도	-11.0721
▁픽션	-11.0721
▁지들	-11.0722
▁없는듯	-11.0722
ᅩ	-11.0725
줘라	-11.0725
▁보느니	-11.0726
롤	-11.0728
돈으로	-11.0729
▁몫	-11.0729
부분은	-11.073
첫	-11.073
▁놈이	-11.073
삐	-11.0732
테러	-11.0732
카메라	-11.0733
▁더빙판	-11.0734
음악이	-11.0734
OST	-11.0734
▁무언가를	-11.0734
▁모르겠는데	-11.0735
낙	-11.0735
▁웃겼음	-11.0736
데이	-11.0738
▁상업	-11.0738
전달	-11.0738
▁있어보이	-11.074
▁말이다	-11.0742
공부	-11.0743
▁있는가	-11.0744
로봇	-11.0744
살에	-11.0745
▁낸	-11.0747
됬다	-11.075
▁하이	-11.075
▁어른들이	-11.0752
▁배울	-11.0753
▁과정을	-11.0753
▁런닝타임	-11.0753
▁옛다	-11.0758
▁죽었다	-11.0759
그것도	-11.076
▁루즈	-11.0761
->	-11.0763
▁보시	-11.0764
▁보소	-11.0764
▁밀라	-11.0767
▁걸린	-11.0768
▁있으니	-11.077
거예요	-11.077
▁전세계	-11.0771
▁출연하는	-11.0774
▁사라져	-11.0775
마치	-11.0776
중반	-11.0778
▁우리들의	-11.0778
▁기회가	-11.0779
▁안되는데	-11.0782
▁허접함	-11.0782
▁압도	-11.0782
▁중의	-11.0782
지금까지	-11.0785
▁깜	-11.079
▁노는	-11.079
▁당하는	-11.0791
▁신선하다	-11.0791
니가	-11.0795
▁꼽	-11.0795
건만	-11.0797
▁편이	-11.08
▁모습과	-11.0802
▁쩌네	-11.0809
▁봐야겠다	-11.081
▁잼씀	-11.0815
어쩌	-11.0815
신선	-11.0817
▁덕에	-11.0817
▁열정이	-11.082
▁의식	-11.082
▁뭔가가	-11.0821
▁지금까지도	-11.0821
▁사이에서	-11.0824
▁달달한	-11.0827
오글	-11.083
▁놔	-11.0837
재밋어요	-11.0837
▁복수를	-11.0837
ic	-11.0839
▁꿈에	-11.0839
▁사회에	-11.0847
▁보기에도	-11.0849
씬에서	-11.0849
▁했을	-11.0853
▁묵	-11.0854
▁남긴다	-11.0855
▁반갑	-11.0858
▁생각해서	-11.0859
나왔다	-11.086
▁얘기가	-11.0866
▁원인	-11.0867
▁반개	-11.0872
▁비현실적인	-11.0873
▁것인지	-11.0874
때가	-11.0875
▁공포영화는	-11.0876
▁감정이입이	-11.0877
▁꿈꾸	-11.0878
...1	-11.0878
▁상상을	-11.0879
▁구려	-11.0879
▁못된다	-11.0881
황당	-11.0884
▁엔딩크레딧	-11.0885
▁도망가	-11.0887
▁자세	-11.0887
쩔어	-11.0887
▁오페라	-11.089
▁넣은	-11.0892
인척	-11.0893
▁뭔데	-11.0897
모습을	-11.0898
찍은	-11.09
▁마음속	-11.0902
기준	-11.0905
재미없는	-11.0906
▁분이	-11.0907
▁많지	-11.0909
...-_-	-11.0913
했어도	-11.0914
자들은	-11.0914
▁아닌가요	-11.0915
▁작품성이	-11.0915
▁아니겠지	-11.0918
ᄏᄏᄏᄏᄏᄏᄏᄏᄏᄏᄏᄏᄏ	-11.0919
었다고	-11.0921
▁환	-11.0925
▁초중반	-11.0926
▁똑같다	-11.0927
▁먹먹	-11.0933
시리즈중	-11.0934
역으로	-11.0937
▁헛웃음	-11.0939
▁웃기네	-11.0939
판에	-11.0941
▁있는거	-11.0941
나쁜	-11.0942
▁스릴러를	-11.0943
해줄	-11.0944
▁겉멋	-11.0944
▁사나이	-11.0948
▁암울	-11.0948
▁악평	-11.095
▁공짜	-11.095
▁상큼	-11.0951
▁마마	-11.0951
▁아쉽네	-11.0952
것이지	-11.0953
▁났	-11.0954
▁할지	-11.0954
마이	-11.0954
▁검사	-11.0955
빼	-11.0956
▁흉내	-11.0956
▁해적	-11.0957
하겠지	-11.0958
▁오글거려	-11.0962
▁지어	-11.0964
보길	-11.0965
▁수준은	-11.0965
▁영화랑	-11.0965
▁땡	-11.0965
밧	-11.0966
아마	-11.0967
럭	-11.0969
▁곳에서	-11.0969
예고	-11.0969
팽	-11.097
▁꼽을	-11.097
탱	-11.0971
스러울	-11.0971
댐	-11.0972
▁계획	-11.0972
▁에일리언	-11.0972
▁이스트우드	-11.0972
▁채플린	-11.0972
▁혹성탈출	-11.0972
댕	-11.0972
▁나타내	-11.0972
▁관람불가	-11.0973
▁맞춘	-11.0973
▁느리고	-11.0973
▁그들만의	-11.0974
▁당최	-11.0974
▁기분좋게	-11.0974
▁재평가	-11.0974
인간의	-11.0976
▁묘하게	-11.0977
▁반전의	-11.0977
▁무얼	-11.0978
▁신나게	-11.0978
▁창조	-11.0978
▁많았던	-11.0978
부턴	-11.0979
▁심심해서	-11.098
▁고향	-11.0981
▁지금껏	-11.0983
▁허술하다	-11.0984
▁느낌이랄까	-11.0984
▁볼만했음	-11.0984
▁화나	-11.0985
▁알수없는	-11.0985
▁일베	-11.0986
▁이번엔	-11.0987
▁속아서	-11.0987
▁딱딱	-11.0988
별로다	-11.0988
제국	-11.0989
▁멋있어요	-11.099
▁졸면서	-11.099
▁낮음	-11.099
아무	-11.0991
▁마녀	-11.0991
▁말아라	-11.0991
▁인터스텔라	-11.0991
▁슬래셔	-11.0991
이딴	-11.0992
▁마초	-11.0992
▁안에서	-11.0992
▁불편하다	-11.0992
▁중요하다	-11.0993
▁주체	-11.0994
▁애인	-11.0994
▁ᄏᄏᄏᄏᄏᄏᄏᄏᄏᄏᄏᄏᄏ	-11.0995
▁안타깝고	-11.0995
시네	-11.0996
▁99	-11.0997
▁현실의	-11.0998
▁KBS	-11.0999
▁아깝다는	-11.1
▁총질	-11.1001
▁청춘의	-11.1001
▁적절히	-11.1001
▁만드네요	-11.1003
▁저급한	-11.1003
재밋게	-11.1005
보지마세요	-11.1005
타령	-11.1005
▁안든다	-11.1006
▁뻔하지만	-11.1006
▁묻어나는	-11.1006
▁박신양	-11.1007
▁불면증	-11.1007
▁오타쿠	-11.1007
반전이	-11.1008
울리	-11.1008
▁거울	-11.1012
▁생각하며	-11.1014
▁씁쓸한	-11.1014
▁2010	-11.1014
▁홍금보	-11.1015
▁미치도록	-11.1015
▁충실한	-11.1016
▁좋아지는	-11.1017
▁잘만들어진	-11.1017
▁만들겠다	-11.1018
재미있는	-11.1018
▁떨어진	-11.1019
▁유아인	-11.1019
▁모든것을	-11.1019
▁많네요	-11.1022
▁존중	-11.1025
▁가라	-11.1025
▁인간들이	-11.1026
▁개잼	-11.1026
▁작위적인	-11.1027
▁아까웠던	-11.1029
▁케이지	-11.1029
게요	-11.1029
▁있었다니	-11.1031
▁패턴	-11.1031
▁화려함	-11.1032
▁하고싶은	-11.1032
▁미이라	-11.1033
▁몇개	-11.1033
▁썼다	-11.1034
▁빨간	-11.1034
▁몽환적인	-11.1035
▁아니죠	-11.1035
찍고	-11.1036
▁장나라	-11.1037
▁재미가없다	-11.1037
티가	-11.1038
▁엉엉	-11.1038
심을	-11.1038
▁잔혹한	-11.104
무서운	-11.1041
▁엽기	-11.1042
되는영화	-11.1043
▁검은	-11.1043
▁잃었다	-11.1044
R	-11.1045
▁섭외	-11.1046
▁아이와	-11.1049
▁배우만	-11.1051
▁남편이	-11.1052
깍	-11.1053
▁스피드	-11.1054
특집	-11.1054
액	-11.1055
룰	-11.1055
시대에	-11.1055
▁할배	-11.1055
봤더니	-11.1055
▁각자의	-11.1056
괜히	-11.1057
철학	-11.1057
바닥	-11.1059
▁종영	-11.1061
▁닮은	-11.1061
▁보나	-11.1064
키스	-11.1068
▁어찌나	-11.1068
▁상영관이	-11.1072
▁시작한	-11.1073
세여	-11.1076
지경	-11.1078
주제	-11.1079
▁오오	-11.108
▁애정	-11.1083
▁하던	-11.1084
이었지만	-11.1085
▁공식	-11.1085
웠음	-11.1085
▁상영시간	-11.1087
▁거부감이	-11.1088
다르	-11.1091
아내	-11.1092
▁쪼	-11.1093
그림	-11.1093
▁웃겼	-11.1093
▁구멍	-11.1093
▁한건지	-11.1098
햇던	-11.1098
겠는데	-11.1098
▁어른들	-11.1099
▁잘만들	-11.11
▁죽이네	-11.1101
▁영화라면	-11.1101
로드	-11.1103
▁환장	-11.1106
▁리뷰를	-11.1107
▁만드나	-11.1109
▁찌질한	-11.1111
아이돌	-11.1113
▁메세지는	-11.1114
꺼다	-11.1114
▁볼거	-11.1115
▁아프고	-11.1115
▁탐	-11.1116
▁이해하고	-11.1117
미래	-11.1117
▁치고는	-11.1118
▁본것	-11.1119
▁내용으로	-11.1119
나오네	-11.112
저리	-11.1121
▁출연자	-11.1124
▁.....	-11.1124
▁남친	-11.113
▁현실성이	-11.1138
▁시나리오에	-11.114
▁세상은	-11.114
재미없고	-11.1141
▁이상을	-11.1141
는건가	-11.1142
시킨다	-11.1144
▁대사들이	-11.1145
▁재치	-11.1145
ᄍᄍᄍ	-11.1146
▁현실이다	-11.1147
▁지나서	-11.1149
▁졸려	-11.1153
데스	-11.1156
▁그때의	-11.1158
보이고	-11.1161
▁자본	-11.1161
▁미쳤다	-11.1164
▁처음임	-11.1165
죽이는	-11.1167
▁없다는게	-11.117
▁벗어	-11.1178
만하고	-11.1178
미안	-11.1179
▁개봉하는	-11.1183
만세	-11.1184
하려면	-11.1186
▁될수	-11.1187
▁노예	-11.1187
▁말아	-11.119
▁혼란	-11.119
못보겠	-11.1191
▁유머가	-11.1193
▁해주	-11.1194
▁당한	-11.1198
영화에서	-11.12
▁더럽	-11.1203
▁먹을	-11.1204
선수	-11.1205
▁있겠다	-11.1212
▁흡입력	-11.1214
▁누님	-11.1214
▁상식	-11.1216
좋게	-11.1217
성공	-11.1221
▁시점	-11.1221
▁주원	-11.1222
▁상황에	-11.1222
▁보는듯	-11.1222
해놓은	-11.1222
▁다른사람	-11.1223
스톤	-11.1223
▁짤	-11.1224
▁봤었	-11.1225
▁비중이	-11.1226
▁조잡	-11.1228
애기	-11.1234
념	-11.1235
만원	-11.1236
▁성장영화	-11.1238
▁콜	-11.1239
▁잊을수가	-11.1241
▁있는것	-11.1242
▁치는	-11.1242
▁남아있	-11.1243
▁뗄	-11.1245
▁지내	-11.1245
▁경악	-11.1247
▁극장판은	-11.1248
▁또보고	-11.1252
엉성	-11.1255
▁도통	-11.1256
않았다	-11.1257
▁안다	-11.126
하군요	-11.1261
▁기대에	-11.1262
▁지리	-11.1263
만든영화	-11.1266
▁영화평	-11.1266
▁만점을	-11.1267
▁그럴싸	-11.1267
▁생각했다	-11.1268
해야할	-11.1268
얻	-11.1268
있다는	-11.1275
▁연기의	-11.1277
여성	-11.128
▁넘은	-11.1284
▁덮	-11.1286
▁쏟아	-11.1286
▁있었나	-11.1286
▁봣다	-11.1286
랏	-11.1288
시죠	-11.1288
▁모독	-11.1289
찮	-11.129
밖엔	-11.1292
으려	-11.1292
▁두근두근	-11.1292
▁첨이네	-11.1292
▁저주	-11.1293
읍	-11.1294
▁스콧	-11.1294
ᄎ	-11.1294
썸	-11.1294
쯔	-11.1294
깃	-11.1294
▁가볍고	-11.1294
▁역사왜곡	-11.1294
▁클린트	-11.1294
▁나발이고	-11.1294
▁어설픔	-11.1294
▁탕웨이	-11.1294
장의	-11.1295
▁오그라든다	-11.1295
▁사다코	-11.1295
▁담아낸	-11.1295
▁과도한	-11.1295
▁둘째	-11.1295
▁용가리	-11.1296
▁저녁	-11.1296
▁결합	-11.1296
▁이름값	-11.1296
▁과잉	-11.1297
▁웬만한	-11.1298
▁감동적이었습니다	-11.1298
동아리	-11.1299
▁따뜻하게	-11.1299
▁위하여	-11.1299
▁느린	-11.1299
▁응원합니다	-11.1299
▁못생긴	-11.13
▁봤었던	-11.13
▁만화는	-11.13
▁멋있었다	-11.1301
▁깔끔하게	-11.1301
▁차원이	-11.1301
▁2001	-11.1302
▁스릴있고	-11.1302
기때문에	-11.1305
▁나이에	-11.1305
▁결론이	-11.1307
괜찬	-11.1307
▁무척이나	-11.1308
▁알게되	-11.1308
▁괜찮을	-11.1309
▁단점	-11.1309
▁끝나기	-11.131
▁이승기	-11.131
▁슬퍼서	-11.1311
▁느꼈던	-11.1311
▁집어넣	-11.1311
▁울었네요	-11.1311
▁남주가	-11.1312
▁그가	-11.1313
깐	-11.1313
▁재미없습니다	-11.1314
▁최초로	-11.1317
▁마을	-11.1318
▁이건좀	-11.1321
▁제작된	-11.1321
▁ᄏᄏᄏᄏᄏᄏᄏᄏᄏᄏᄏᄏᄏᄏᄏ	-11.1322
▁화끈	-11.1323
▁홍진호	-11.1323
떨어지	-11.1323
▁전율	-11.1323
▁실망스럽다	-11.1324
▁싶은건지	-11.1326
▁재회	-11.1329
라이트	-11.133
▁수사	-11.133
됐음	-11.1331
▁엑소시스트	-11.1331
▁무게감	-11.1332
▁선전	-11.1335
▁계기가	-11.1336
▁실망한	-11.1337
▁좀비물	-11.1338
▁순정	-11.1338
연애	-11.1338
▁콘서트	-11.1339
보고싶어요	-11.1339
▁감명	-11.134
▁다문화	-11.1341
땡	-11.1341
▁외화	-11.1341
▁풀었	-11.1342
▁만나서	-11.1342
▁지루하지않고	-11.1343
앉	-11.1343
▁더빙은	-11.1344
▁저것도	-11.1344
합니까	-11.1347
▁총을	-11.1349
햇지만	-11.1349
▁머지	-11.1351
음악도	-11.1351
▁맙시다	-11.1352
▁오락성	-11.1354
▁마케팅	-11.1355
▁런닝맨	-11.1355
지않게	-11.1355
▁줄리아	-11.1358
▁재밌지도	-11.1358
▁군대에서	-11.136
▁낳은	-11.1361
앗다	-11.1361
▁스텝업	-11.1363
이쁘	-11.1363
▁장근석	-11.1364
▁신부	-11.1365
▁사랑도	-11.1366
ᄁ	-11.1367
마라	-11.1368
▁부탁	-11.1371
▁고질라	-11.1372
▁여정	-11.1372
무서워	-11.1373
▁미소를	-11.1378
▁시간아까움	-11.1378
▁me	-11.1382
붕	-11.1383
H	-11.1383
▁수준급	-11.1384
▁때우기	-11.1384
낳	-11.1385
핵	-11.1385
▁씨발	-11.1385
▁울게	-11.1387
썩	-11.1388
셋	-11.1388
인영화	-11.1389
작이라	-11.1392
교훈	-11.1392
마무리	-11.1393
▁분위기와	-11.1393
형제	-11.1393
▁팬이라면	-11.1395
▁속편이	-11.1395
▁장편	-11.1396
자신	-11.1397
▁썩은	-11.1398
▁한사람	-11.1398
티비에서	-11.1398
▁얘	-11.1399
▁징	-11.14
좋았음	-11.14
▁일드	-11.1401
해줬으면	-11.1402
중요한	-11.1402
나오면	-11.1403
▁가리	-11.1406
de	-11.1406
▁보여줬다	-11.1408
망작	-11.1409
▁알려주	-11.141
▁이건진짜	-11.1414
▁첫장면	-11.1416
현재	-11.1417
▁시절의	-11.1421
▁개발	-11.1423
▁제작진들	-11.1424
▁님들	-11.1425
▁같기도	-11.1428
▁작품인데	-11.1435
먹었	-11.1435
▁중후반	-11.1437
▁어느것	-11.1442
잔잔한	-11.1444
역을	-11.1445
as	-11.1446
좋은데	-11.1446
▁별반개도	-11.1446
▁사람들도	-11.1446
▁추천해	-11.1447
▁깍	-11.145
▁밑에분	-11.1455
▁기어	-11.1456
정한	-11.1458
더스	-11.146
정돈	-11.146
같네요	-11.1461
▁이영화에서	-11.1461
개를	-11.1462
점정도가	-11.1466
▁!!!!	-11.1469
▁윤아	-11.1469
▁분노가	-11.147
ve	-11.1472
▁작품성은	-11.1472
▁난해하다	-11.1474
▁상황에서	-11.1474
앞으로도	-11.1477
▁잘하네	-11.1479
▁있다는게	-11.1479
▁지적	-11.148
▁활	-11.148
▁너무한다	-11.1481
▁레드	-11.1481
▁서로를	-11.1484
등등	-11.1491
거여	-11.1491
▁제작한	-11.1491
내서	-11.1493
사기	-11.1494
당하고	-11.1495
▁한없이	-11.1497
신은	-11.1498
▁나오게	-11.1499
장님	-11.1502
▁바뀌는	-11.1505
좋아해서	-11.1506
볼만한	-11.1507
때까지	-11.1507
▁서우	-11.1508
없었	-11.1512
▁기대감	-11.1513
▁젊	-11.1513
어진다	-11.1513
▁태도	-11.1516
▁해야하나	-11.1517
▁싸우	-11.1519
▁한계가	-11.152
낫다	-11.152
▁지루하지만	-11.152
없으면	-11.1522
기분이	-11.1524
▁이루어	-11.1529
▁집안	-11.1531
▁멍청	-11.1534
개의	-11.1535
▁스릴러가	-11.1535
▁싱	-11.1538
▁해놓고	-11.1542
도못	-11.1543
▁실화라니	-11.1545
생각해	-11.1545
잔아	-11.1547
▁해요	-11.1548
넘들	-11.1548
▁영화같은	-11.1548
▁살기	-11.1548
▁없을까	-11.1551
▁반응	-11.1555
▁나오는지	-11.1555
▁사랑이란	-11.1558
해줘	-11.1558
▁환불	-11.1558
▁두분	-11.1561
▁평론	-11.1561
▁진보	-11.1563
찍어	-11.1565
점입니다	-11.1566
못할	-11.1568
▁지는	-11.1569
▁참을	-11.157
▁정점	-11.1573
▁하는건	-11.1574
▁되었	-11.1575
▁하시	-11.1578
맞음	-11.158
최고의영화	-11.1583
최악의영화	-11.1584
섯	-11.1586
▁방황	-11.1588
▁무난	-11.1593
▁예의	-11.1594
▁놈들은	-11.1595
▁아닌거	-11.1597
▁맡	-11.16
▁남지	-11.1603
▁온다	-11.1606
▁k	-11.1606
▁말에	-11.1608
랍	-11.1611
▁질리	-11.1611
▁사람으로	-11.1612
잇엇	-11.1612
믄	-11.1612
▁높은거	-11.1614
회를	-11.1617
is	-11.1617
▁장르는	-11.1618
▁선사	-11.1619
▁솔까	-11.162
등이	-11.1621
웟	-11.1622
▁가자	-11.1623
▁표현하는	-11.1623
▁드라마보다	-11.1625
해줌	-11.1626
Y	-11.1626
첩	-11.1627
콤	-11.1627
▁뭡니까	-11.1628
▁신현준	-11.1628
▁소름끼친다	-11.1628
▁충무로	-11.1628
▁휴머니즘	-11.1628
▁묵직한	-11.1628
▁정재영	-11.1628
▁침묵	-11.1628
▁전문성우	-11.1628
▁불필요한	-11.1628
▁레이싱	-11.1629
▁외계인이	-11.1629
▁에로틱	-11.1629
▁어려울	-11.1629
선생	-11.1629
▁촌스러운	-11.1629
▁0.5	-11.1629
▁꺼버렸다	-11.1629
▁오싹	-11.163
▁민망한	-11.163
▁종합	-11.163
▁졸았다	-11.163
▁낚이지	-11.1631
▁뭔내용인지	-11.1631
▁옆	-11.1631
▁신파극	-11.1631
▁와이어	-11.1631
▁느꼈습니다	-11.1632
았으면	-11.1632
▁돈도	-11.1632
▁보는줄	-11.1634
▁객관적으로	-11.1634
▁다를게	-11.1636
▁억지스럽다	-11.1636
▁좋아할만한	-11.1636
▁어떨까	-11.1636
▁아름다웠던	-11.1637
▁생각나네	-11.164
▁유아용	-11.1641
▁여자들의	-11.1641
▁내겐	-11.1642
▁졸려서	-11.1642
인들의	-11.1642
▁나았다	-11.1643
하루	-11.1643
▁잘보고	-11.1645
▁순위	-11.1646
▁허무하다	-11.1647
▁보석	-11.1648
▁소문	-11.1648
▁리암니슨	-11.1649
▁볼만하네요	-11.1652
▁거대한	-11.1652
▁재밌게봤음	-11.1653
한테는	-11.1655
이번	-11.1657
만들었	-11.1657
▁공감되는	-11.1657
▁+1	-11.1657
▁깔끔	-11.1659
▁정체성	-11.166
!!!!!!!!!	-11.1661
연기자	-11.1662
▁강혜정	-11.1665
유쾌	-11.1666
▁센	-11.1667
▁호평	-11.1667
▁이념	-11.1667
▁때도	-11.1667
▁지대로	-11.1667
▁오늘도	-11.1668
▁시간때우기	-11.1669
남편	-11.167
대작	-11.167
▁유치하지만	-11.1672
▁씨네	-11.1673
상실	-11.1673
▁힘든데	-11.1673
▁양조위	-11.1673
▁강호동	-11.1674
▁심사위원	-11.1674
른다	-11.1676
데서	-11.1676
으라고	-11.1679
▁웃겨요	-11.1679
▁드러	-11.168
▁음모	-11.168
▁개인적으론	-11.1682
▁알수있	-11.1683
▁촬영기법	-11.1683
▁겁니다	-11.1685
쉽	-11.1685
▁진행이	-11.1686
친구들	-11.1686
▁새끼들	-11.1687
▁부여	-11.1689
▁코스프레	-11.169
▁맛에	-11.169
▁교감	-11.1692
▁욕구	-11.1693
▁음악에	-11.1694
▁아니었음	-11.1696
네용	-11.1697
▁실망했다	-11.1697
▁이순신	-11.1698
▁남주인공	-11.1699
▁하는건지	-11.17
▁선수	-11.1701
▁500	-11.1704
▁팔아먹	-11.1704
▁별다른	-11.1705
아까워	-11.1706
주고싶	-11.1707
▁어려웠	-11.1708
같지만	-11.1709
놈들은	-11.1709
70	-11.171
지르는	-11.1712
▁포스터는	-11.1713
▁느끼지	-11.1713
▁자라	-11.1714
▁꼬맹이	-11.1715
▁재미있던데	-11.1716
예상	-11.1716
되길	-11.1717
▁맞게	-11.1718
▁병원	-11.1719
▁님	-11.172
▁믿을수	-11.1721
▁보고서	-11.1723
이여서	-11.1723
▁역할이	-11.1723
▁마구	-11.1727
봤었는데	-11.1727
▁일본식	-11.1728
▁기분만	-11.1728
▁둘의	-11.1728
땜시	-11.1731
특유의	-11.1731
캬	-11.1734
▁내스타일	-11.1736
훨씬	-11.1736
깎	-11.1736
섹스	-11.1736
보나	-11.1736
▁아이의	-11.1737
터짐	-11.1737
킬링타임	-11.1737
할게요	-11.1738
▁자극하는	-11.1739
항상	-11.174
▁했어야	-11.1742
방법	-11.1744
▁끝날때까지	-11.1744
▁평소에	-11.1744
▁주제로	-11.1744
▁행동이	-11.1746
▁오로라	-11.1746
▁왕자	-11.1749
영환데	-11.175
어디서	-11.1753
▁앞부분	-11.1753
순수	-11.1757
할뻔	-11.1757
앞에	-11.1763
수준의	-11.1764
▁이따구	-11.1765
등장	-11.1766
떨어지는	-11.1767
▁마시	-11.1768
았습니다	-11.1768
▁인간들은	-11.1769
기보단	-11.177
▁영화인거	-11.1773
▁고로	-11.1773
재밌는데	-11.1773
▁냄새	-11.1773
점드립니다	-11.1776
▁지원	-11.1777
▁그런건	-11.1778
없구	-11.1778
▁모냐	-11.1779
▁밀어	-11.1779
▁떠난	-11.178
▁공포영화를	-11.178
해버린	-11.1781
▁말한다	-11.1781
ᅳᅮ	-11.1782
60	-11.1782
ter	-11.1784
▁안하는데	-11.1785
돋	-11.1785
재밌네요	-11.1785
간지	-11.1786
▁교훈이	-11.1787
범인	-11.1788
▁사기꾼	-11.1789
▁날라	-11.179
▁코믹물	-11.1792
▁뇌가	-11.1795
▁성룡영화	-11.1797
▁]	-11.1798
▁쯧쯧	-11.1799
죽고	-11.18
▁잘했다	-11.1804
▁메세지도	-11.1806
▁안난다	-11.1806
▁행위	-11.1807
▁안들어	-11.1808
영화이다	-11.1809
▁다같이	-11.181
▁말하지	-11.1811
▁하려고	-11.1812
▁길고	-11.1823
써요	-11.1824
돼서	-11.1825
▁시작은	-11.1825
▁떠오르	-11.1833
해놓고	-11.1833
▁그래픽은	-11.1833
점드림	-11.1835
▁호흡	-11.1835
▁일상을	-11.1835
버려서	-11.1842
▁줬다	-11.1843
▁서부영화	-11.1844
▁하냐	-11.1846
쓴다	-11.1846
▁댄스	-11.1848
▁나름의	-11.1849
▁되기	-11.1853
리와	-11.1854
▁기대는	-11.1855
▁일반인	-11.1855
▁우리네	-11.1855
▁우리나라는	-11.1855
아닌듯	-11.1861
▁도움	-11.1863
▁남자들이	-11.1863
▁봤어	-11.1864
▁건질	-11.1864
▁보자고	-11.1865
보다니	-11.1866
▁좋아하게	-11.1866
었죠	-11.1866
▁잔인하	-11.1868
▁미인	-11.1872
트가	-11.1872
▁예수님	-11.1873
겠군	-11.1873
▁꺼져	-11.1874
▁말해서	-11.1874
▁살인을	-11.1875
시장	-11.1875
▁예술적	-11.1876
▁식으로	-11.1879
공주	-11.1883
▁여주의	-11.1885
▁찢어	-11.1888
▁미국영화	-11.189
께서	-11.1893
▁진화	-11.1897
미스	-11.1899
▁잘해서	-11.19
,,,,,,	-11.19
▁감안	-11.1901
▁못잡	-11.1901
디스	-11.1901
부터는	-11.1904
▁못보고	-11.1906
자와	-11.1908
▁우리집	-11.1912
!^^	-11.1918
▁어울리	-11.192
출신	-11.192
▁깊이가	-11.1921
▁깨달음	-11.1921
놨다	-11.1928
관을	-11.193
국가	-11.1933
▁끝났다	-11.1935
▁아까웠	-11.1937
므	-11.1938
▁넘겨	-11.1942
▁먹어	-11.1943
▁칸	-11.1945
케이	-11.1945
▁정상	-11.1946
부부	-11.1949
쇄	-11.195
▁맞추기	-11.1951
▁적절	-11.1954
▁어색하지	-11.196
▁잔잔하면서	-11.1961
▁♡	-11.1966
걷	-11.1967
뜯	-11.1968
랍니다	-11.197
▁일어나는	-11.197
벼	-11.197
댓	-11.1971
▁때리	-11.1972
쉴	-11.1972
▁봤으니	-11.1973
▁스탤론	-11.1973
▁인상깊은	-11.1973
뒀	-11.1973
웰	-11.1973
탔	-11.1973
▁and	-11.1973
▁나중엔	-11.1973
▁무슨내용인지	-11.1973
-0-	-11.1973
▁못미치는	-11.1973
▁흔히	-11.1973
▁kbs	-11.1973
▁옹박	-11.1973
▁한정된	-11.1973
▁박해일	-11.1973
▁콤비	-11.1973
▁에이리언	-11.1973
▁빵터짐	-11.1973
▁슈렉	-11.1973
▁로드무비	-11.1973
▁루이스	-11.1973
▁리즈시절	-11.1973
▁새롭고	-11.1973
▁놓친	-11.1974
▁얼른	-11.1974
▁김하늘	-11.1974
▁실컷	-11.1974
▁발휘	-11.1974
▁악몽	-11.1974
▁습작	-11.1975
▁찾았다	-11.1975
▁가득찬	-11.1975
광수	-11.1975
▁얻을	-11.1975
▁선율	-11.1976
▁첨본다	-11.1976
▁뇌리에	-11.1977
▁깨알같은	-11.1977
▁억지스러움	-11.1978
▁생생하게	-11.198
▁미안하지만	-11.1981
▁소유	-11.1981
▁미칠	-11.1981
~10	-11.1982
▁날로	-11.1982
▁몰입하면서	-11.1982
▁너무좋아	-11.1982
▁파악	-11.1982
▁없었습니다	-11.1984
▁잼있었다	-11.1984
선이	-11.1984
▁다세포	-11.1985
리아	-11.1985
▁울었음	-11.1985
▁고백	-11.1987
▁예뻐요	-11.1988
▁사랑스런	-11.1988
▁발생	-11.1988
▁시원하게	-11.1988
▁올레티비	-11.1988
▁저평가된	-11.199
▁치밀한	-11.199
▁이야기와	-11.1991
▁표본	-11.1991
▁산다	-11.1992
▁왠만해선	-11.1994
▁후덜덜	-11.1994
▁이준기	-11.1995
▁영화자체가	-11.1995
버스	-11.1996
▁전환	-11.1997
▁기준으로	-11.1997
▁이라는	-11.1998
▁없었지만	-11.1998
이영화를	-11.1999
▁의미는	-11.2001
점준것중에	-11.2001
▁브래드피트	-11.2003
▁잔인하게	-11.2003
▁지워	-11.2004
▁조직	-11.2005
▁무료로	-11.2005
▁결과물	-11.2005
있어야	-11.2006
▁관람가	-11.2008
관이	-11.2009
▁빅뱅	-11.2011
▁스타일의	-11.2011
▁서부극	-11.2012
▁신나는	-11.2013
▁비유	-11.2014
▁매년	-11.2015
▁비난	-11.2015
껴	-11.2016
▁참신하고	-11.2018
햇음	-11.2019
안되고	-11.2019
▁이동욱	-11.202
▁고려	-11.202
▁공중파	-11.2021
▁뭐하냐	-11.2022
▁과거의	-11.2023
▁이성재	-11.2023
무지	-11.2024
▁엉망이고	-11.2024
▁좋구	-11.2025
▁산만	-11.2025
▁끝내주는	-11.2025
▁마음은	-11.2026
▁어떻게든	-11.2027
▁식스센스	-11.2029
것다	-11.2029
▁그리운	-11.2031
시나	-11.2032
액션은	-11.2034
▁목숨을	-11.2034
▁코미디가	-11.2036
넘게	-11.2036
바보	-11.2038
▁쓰레기가	-11.2038
▁냄새가	-11.2039
▁잠든	-11.204
▁수작입니다	-11.204
▁백미	-11.2041
▁영화들이	-11.2042
▁언제쯤	-11.2042
▁히로	-11.2043
▁시청자를	-11.2044
중간	-11.2046
es	-11.2047
ᄏᄏᄏᄏᄏᄏᄏᄏᄏᄏᄏ	-11.2048
▁알고보니	-11.2049
페이스	-11.2055
▁한국영화가	-11.2055
유키	-11.2057
▁불과	-11.2058
때문인지	-11.2058
▁드라마에요	-11.2059
프리	-11.2059
▁미션	-11.206
▁평정	-11.206
▁쉣	-11.2063
외로	-11.2068
감사합니다	-11.2068
약한	-11.2069
▁안쓰는데	-11.2072
이란걸	-11.2072
▁체험	-11.2072
사장	-11.2075
ᄏᄏᄏᄏᄏᄏᄏᄏᄏᄏ	-11.2078
▁니들은	-11.2078
200	-11.208
쥬	-11.2081
뽑	-11.2081
▁타이	-11.2082
▁넘쳐	-11.2083
할때마다	-11.2084
▁재밌긴	-11.2085
▁알수가	-11.2086
▁관객의	-11.2088
▁미리	-11.2088
메이	-11.2089
▁CGV	-11.209
매니아	-11.2091
▁안녕	-11.2091
▁그랬다	-11.2092
저렇게	-11.2092
오히려	-11.2092
흥행	-11.2092
젖	-11.2093
되네	-11.2095
개념	-11.2096
이것도	-11.2097
실패	-11.2097
▁야이	-11.2097
▁갱	-11.2099
▁크고	-11.2099
동이	-11.2101
왠지	-11.2104
▁멋있어	-11.2104
하든	-11.2105
▁나이트	-11.2106
내면	-11.2106
▁이리도	-11.2106
▁만들기도	-11.2107
▁몇년이	-11.2107
▁아아	-11.2109
▁밀려	-11.2109
▁놈들이	-11.2114
설마	-11.2114
전설	-11.2118
남녀	-11.2119
번에	-11.2119
▁싶네	-11.212
짜증난다	-11.212
▁너는	-11.2121
▁만나고	-11.2122
▁빠져들어	-11.2132
▁혹	-11.2132
집중	-11.2134
▁진짜진짜	-11.2135
▁몽	-11.2135
뻔했다	-11.2137
데다가	-11.2139
▁쳐도	-11.2147
하구요	-11.2149
몰라도	-11.2149
▁볼거리가	-11.2149
인증	-11.2151
석이	-11.2153
▁장치	-11.2153
▁수는	-11.2154
거리고	-11.2154
▁다음에	-11.2155
▁건데	-11.2155
세상에	-11.2156
▁인간을	-11.2161
▁잘봤다	-11.2163
괴물	-11.2167
뒤로	-11.2169
▁곱	-11.2172
▁싸우고	-11.2172
▁못만들	-11.2173
▁순간이	-11.2173
▁거대	-11.2173
자꾸	-11.2176
▁촌스럽지	-11.2177
키는	-11.2182
▁영활	-11.2184
▁생각에	-11.2186
▁재밋어	-11.219
▁드물	-11.2191
▁봤다니	-11.2193
▁뽀	-11.2193
▁없는영화	-11.2195
때문	-11.2196
▁슬프게	-11.2196
씨와	-11.22
▁코믹한	-11.2201
▁감정들	-11.2201
두번	-11.2201
▁열받	-11.2202
러브	-11.2206
났던	-11.2206
▁따뜻해	-11.2207
본적	-11.2209
행동	-11.2209
갔는데	-11.221
▁기분좋은	-11.2213
▁뛰어나다	-11.2214
▁작품의	-11.2215
다니고	-11.2216
좋아하는데	-11.2216
▁부각	-11.2218
▁주려고	-11.2218
▁미치는	-11.2221
▁후회하지	-11.2222
단체	-11.2226
▁붕	-11.2227
▁죽기	-11.2228
▁놀랍	-11.2229
▁몰입을	-11.223
▁배우로	-11.2231
시키지	-11.2231
▁보여서	-11.2233
▁아니라는	-11.2233
▁외에는	-11.2236
▁23	-11.224
▁잘생긴	-11.2243
배우들도	-11.2247
▁배경은	-11.2247
▁영화로서	-11.2254
▁눈빛이	-11.2257
▁캐릭터에	-11.2258
▁없더라	-11.2258
하지않은	-11.226
▁영화들은	-11.226
▁인지	-11.2261
▁차지	-11.2262
▁식의	-11.2263
▁->	-11.2263
평론가	-11.2264
둘이	-11.2266
▁끝나지	-11.2267
하시네요	-11.2269
▁잃었	-11.227
여름	-11.2272
색이	-11.2272
▁해피엔딩이	-11.2274
알바들	-11.2277
▁말이지	-11.2277
영화보면서	-11.228
▁볼까	-11.2281
▁영화계	-11.2282
▁있는게	-11.2283
즐겁	-11.2293
▁당하고	-11.2296
▁모성애	-11.2296
▁미화하는	-11.2297
위를	-11.2298
사람을	-11.2298
▁나에게는	-11.23
▁세계를	-11.2307
▁일이다	-11.2309
▁즐기는	-11.2309
억울	-11.231
본게	-11.2312
▁욕나오는	-11.2316
▁연관	-11.2316
▁이런것	-11.2319
랬는데	-11.232
▁장면의	-11.232
쟁	-11.2321
장애	-11.2324
뭐가	-11.2325
로서는	-11.2328
▁될것	-11.2328
늬	-11.2329
썰	-11.233
naver	-11.233
ᄑ	-11.233
▁문근영	-11.233
▁원맨쇼	-11.233
▁찝찝함	-11.233
씌	-11.233
▁추악한	-11.233
도그렇고	-11.233
▁유오성	-11.233
▁크루즈	-11.233
원주고	-11.233
▁페이크다큐	-11.233
▁돋보임	-11.233
▁조인성	-11.233
▁단체로	-11.233
것인지	-11.2331
▁잔잔하니	-11.2331
▁꺼버림	-11.2331
▁쌍욕	-11.2331
▁미흡	-11.2331
▁2008	-11.2331
▁my	-11.2331
찍었	-11.2332
▁전기	-11.2332
▁껏다	-11.2332
▁끝내준다	-11.2333
▁한예슬	-11.2333
▁다시보고싶은	-11.2333
▁탁	-11.2334
▁얘들	-11.2334
▁적응	-11.2335
▁생각해도	-11.2335
▁않았습니다	-11.2335
▁꼭봐야	-11.2335
▁히트	-11.2336
▁완소	-11.2337
▁신앙	-11.2337
▁다섯	-11.2337
▁타이틀	-11.2337
▁넓	-11.2337
▁어느새	-11.2338
▁교차	-11.2338
▁몇번이고	-11.2338
▁남들	-11.2338
시킴	-11.2338
▁괴작	-11.2339
~!!!!	-11.234
▁뛰어넘	-11.234
▁떠올리게	-11.2341
▁않았는데	-11.2341
▁진부하	-11.2342
편만	-11.2342
▁무의미한	-11.2343
▁미치겠다	-11.2343
▁구매	-11.2343
▁납니다	-11.2344
▁능가하는	-11.2344
▁일어난	-11.2346
▁사막	-11.2347
만들기	-11.2347
▁비추천	-11.2347
▁어째서	-11.2347
▁제법	-11.2349
▁망치는	-11.2349
▁훌륭했다	-11.2351
▁반전과	-11.2352
▁듣보잡	-11.2352
▁웨슬리	-11.2352
▁최곱니다	-11.2352
▁크리스토퍼	-11.2352
▁보았지만	-11.2352
하는걸	-11.2352
▁소피	-11.2353
▁빈약	-11.2353
▁무식	-11.2354
때도	-11.2354
▁없구	-11.2355
▁리얼하게	-11.2355
▁베이	-11.2356
▁매회	-11.2359
▁암이	-11.2359
▁가는줄	-11.2359
▁분명하다	-11.2362
▁원빈	-11.2362
▁되는거	-11.2362
집에	-11.2363
▁난무	-11.2364
▁쓰레기라고	-11.2365
▁창작	-11.2365
▁암울한	-11.2365
▁불편하고	-11.2366
▁괜찮던데	-11.2366
▁함정	-11.237
▁쌩	-11.2371
▁대가리	-11.2371
▁흔적이	-11.2373
▁꼭봐라	-11.2376
ᄏᄏᄏᄏᄏᄏᄏᄏᄏᄏᄏᄏ	-11.2376
▁나한테	-11.2378
▁황비홍	-11.2379
높아	-11.238
▁질문	-11.238
인줄알았는데	-11.2381
▁느껴짐	-11.2381
▁구하기	-11.2381
▁자제	-11.2382
▁미군	-11.2383
▁관점에서	-11.2383
뿐더러	-11.2384
▁지겨운	-11.2388
▁투표	-11.2388
▁봐야함	-11.2389
▁개봉하지	-11.2389
▁화해	-11.239
▁화가난다	-11.2391
▁인디	-11.2391
▁먹먹함	-11.2391
▁악플	-11.2391
돌리	-11.2391
▁진정으로	-11.2391
멋진	-11.2392
을위한	-11.2394
▁잘생김	-11.2394
대상	-11.2397
▁생겨서	-11.2397
▁낫지	-11.2399
왓	-11.2399
삘	-11.24
▁졸업	-11.24
▁안가고	-11.24
▁한표	-11.2402
▁흥행에	-11.2403
▁바람피	-11.2403
소년	-11.2403
▁뼈	-11.2406
▁드러난	-11.2407
!!!!!!!!!!!!!!	-11.2407
▁확신	-11.2408
▁죄송	-11.2408
▁사라	-11.2408
할정도	-11.241
▁호러물	-11.2411
영화지만	-11.2411
▁뻔하	-11.2413
▁이야기도	-11.2413
▁멋있음	-11.2415
▁망했	-11.2416
▁연관성	-11.2417
없게	-11.2417
시리	-11.2417
듣	-11.2417
▁명작이라	-11.2419
▁닥	-11.2423
하하하	-11.2423
▁한달	-11.2423
▁생각하는데	-11.2426
▁망상	-11.2427
▁녹화	-11.2429
▁약간은	-11.243
▁액션으로	-11.2432
▁잣	-11.2433
같았다	-11.2434
낮다	-11.2435
▁대단함	-11.2436
▁하나만	-11.2437
레인	-11.2441
▁24	-11.2444
▁인기가	-11.2444
있으면서	-11.2447
▁없었다면	-11.2447
맛이	-11.2447
▁질질끌	-11.2448
▁명성	-11.2448
▁풀어내	-11.2449
닐	-11.245
슬프다	-11.245
▁파이팅	-11.2451
▁수준이다	-11.2451
▁고통을	-11.2453
ᅲᅲᅲᅲᅲ	-11.2456
▁보임	-11.2457
▁과장되	-11.2457
띠	-11.2457
야겠다	-11.2458
꼽	-11.2459
▁지우	-11.2459
청춘	-11.2459
지구	-11.246
▁봤을땐	-11.2461
▁이걸보고	-11.2462
▁남았	-11.2463
▁주말에	-11.2464
▁이딴영화	-11.2465
▁짠한	-11.2467
할수밖에	-11.2467
씩이나	-11.2468
▁no	-11.2468
을위해	-11.247
▁처음입니다	-11.247
▁된다고	-11.247
주는게	-11.247
13	-11.2471
끝에	-11.2472
극장판	-11.2472
▁흘러도	-11.2474
▁그외	-11.2474
▁괴물이	-11.2474
줬음	-11.2474
그릇	-11.2478
갔던	-11.2481
▁so	-11.2482
왜케	-11.2483
▁귀에	-11.2485
되야	-11.2486
아깝네	-11.2487
답지	-11.2487
그거	-11.2487
▁찡한	-11.2488
▁각본이	-11.2489
티비로	-11.249
하고픈	-11.2493
▁연기파	-11.2493
모자	-11.2495
▁......	-11.2495
▁다니	-11.2496
▁차별	-11.2497
▁많았다	-11.2497
▁쏠쏠	-11.2499
▁각본과	-11.2499
우울	-11.2503
▁할거	-11.2506
▁못하지만	-11.2507
▁기대치	-11.2509
▁현장	-11.2509
▁연기자들의	-11.251
▁여자와	-11.251
꼬마	-11.2511
류의	-11.2512
▁비하	-11.2513
▁연출한	-11.2515
▁리즈	-11.2516
▁초반의	-11.2518
▁써야	-11.2518
▁동호	-11.252
상으로	-11.2522
될수	-11.2522
▁줘서	-11.2523
스토	-11.2526
력을	-11.2529
미치	-11.253
▁몸에	-11.253
▁애니로	-11.2531
보며	-11.2532
미소	-11.2534
드리고	-11.2535
▁음악만	-11.2537
급으로	-11.2538
변화	-11.2539
st	-11.2543
더이상	-11.2545
▁그것은	-11.2545
던거	-11.2547
▁늙었	-11.255
▁왓	-11.2552
몇번	-11.2553
웠던	-11.2554
것같아서	-11.2555
▁배우들만	-11.2559
▁유쾌함	-11.2559
보기에	-11.256
기만하고	-11.2561
에서나	-11.2562
▁거부감	-11.2564
▁기억하는	-11.2565
▁정성	-11.2566
▁생명	-11.2571
나봐	-11.2574
▁임권택	-11.2576
▁화려하	-11.2579
▁전편에	-11.258
▁티나	-11.2582
살려	-11.2584
하잖아	-11.2584
큼	-11.2588
.."	-11.2589
▁나간	-11.2589
▁내평점	-11.259
모르는	-11.2594
보겠다	-11.2597
▁넘기	-11.2597
▁중간중간에	-11.2598
▁말할수	-11.2599
▁최초	-11.26
▁지나가	-11.26
엇음	-11.2601
▁안보는	-11.2602
볼수있는	-11.2604
▁성공한	-11.2607
▁숨이	-11.2607
▁예매	-11.2608
시대를	-11.2609
▁확실	-11.261
심장	-11.2611
소재로	-11.2612
▁류의	-11.2613
▁칭	-11.2615
▁보신	-11.2615
생겼	-11.2618
▁관계를	-11.262
남자가	-11.2625
▁홀	-11.2626
▁최고라는	-11.2628
▁아이들을	-11.2634
ri	-11.2635
▁과한	-11.2635
▁충격적	-11.2637
보는것	-11.2638
▁낚이	-11.2639
보게되	-11.2641
놀래	-11.2642
▁안봤는데	-11.2643
줄알았다	-11.2643
▁캐스팅에	-11.2643
뿐만	-11.2644
그려	-11.2645
왔는데	-11.2646
▁보고난	-11.2648
배우의	-11.2649
▁원작소설	-11.2652
▁나쁘진	-11.2653
돋네	-11.2653
▁싸이	-11.2653
것들은	-11.2654
▁다루는	-11.2655
멜	-11.2657
▁이해는	-11.2661
▁너무좋아요	-11.2665
깝	-11.2666
▁인연	-11.2669
▁말할것도	-11.2669
▁배우들로	-11.267
역겹	-11.2672
▁내취향	-11.2674
▁개독	-11.2675
쌓	-11.2678
감동이	-11.2679
▁못하게	-11.2682
▁배경을	-11.2683
▁썩어	-11.2685
신기	-11.2686
사라	-11.2686
히고	-11.2686
됐지만	-11.2686
▁시키는	-11.2688
▁담겨	-11.2689
▁여기저기	-11.269
▁장면에	-11.269
▁중국의	-11.2691
▁맞은	-11.2691
눌	-11.2692
금지	-11.2694
▁한번은	-11.2695
랭	-11.2696
뢰	-11.2698
▁강요	-11.2698
▁브래드	-11.27
▁지하철	-11.27
▁획을	-11.27
궈	-11.27
욧	-11.27
▁스타일리쉬	-11.27
▁어벤져스	-11.27
▁엑스트라	-11.27
뇨	-11.27
시켰다	-11.27
▁덴젤	-11.27
▁애절한	-11.27
▁노무현	-11.27
▁피라냐	-11.27
▁엠마	-11.27
▁차가운	-11.27
▁큐브	-11.27
▁싱겁	-11.27
▁외로운	-11.27
▁나타난	-11.27
테잎	-11.27
▁몬스터	-11.2701
▁떠오른다	-11.2701
▁스티브	-11.2701
▁페이크	-11.2701
▁즐겁다	-11.2701
▁눈뜨고	-11.2701
▁최선을	-11.2701
▁시청율	-11.2701
▁푸른	-11.2701
▁여진구	-11.2701
▁알앗	-11.2702
▁프레디	-11.2702
▁적나라하게	-11.2702
▁효민	-11.2703
▁시나리오는	-11.2703
▁회복	-11.2703
▁보면볼수록	-11.2703
▁중딩때	-11.2704
▁타짜	-11.2704
▁짧아서	-11.2705
민호	-11.2705
▁평은	-11.2705
▁엔딩곡	-11.2706
▁키워	-11.2706
▁행복해지는	-11.2707
▁화끈하게	-11.2707
▁한지민	-11.2708
▁금방	-11.2708
▁할말이없다	-11.2708
▁어정쩡	-11.2709
▁아니었으면	-11.2709
▁솔직하게	-11.2709
▁쯤	-11.271
▁어깨	-11.2711
▁급전개	-11.2711
▁자연스럽고	-11.2712
▁완벽히	-11.2712
▁나왔습니다	-11.2712
▁대단합니다	-11.2712
▁애를	-11.2712
▁슴가	-11.2713
될까	-11.2713
놈들아	-11.2714
▁날려	-11.2714
▁넘친다	-11.2715
흐흐	-11.2716
▁이뤄	-11.2717
▁어려서	-11.2717
▁아니에요	-11.2718
▁로그인하게	-11.272
▁몰라서	-11.2721
▁마지막으로	-11.2722
▁멋지네요	-11.2722
▁97	-11.2723
▁안봤으면	-11.2723
▁멜깁슨	-11.2723
▁방향	-11.2724
▁좆	-11.2725
▁사장	-11.2725
굿굿	-11.2725
▁시장	-11.2725
졌습니다	-11.2726
▁담아	-11.2727
▁웃어	-11.2728
▁존재가	-11.2729
앞	-11.2729
을정도로	-11.273
▁경쟁	-11.273
▁눈만	-11.2731
▁마크	-11.2731
▁극적인	-11.2731
본영화중에	-11.2732
▁코미디로	-11.2732
▁까메오	-11.2733
▁로보캅	-11.2733
▁유치뽕짝	-11.2733
▁너희	-11.2733
▁못봐주겠다	-11.2733
▁평점좀	-11.2733
▁만들었네요	-11.2734
▁돌아가는	-11.2734
▁영화관가서	-11.2736
못했다	-11.2739
co	-11.274
▁보면서도	-11.2741
▁그를	-11.2741
▁다행이	-11.2742
▁즐거워	-11.2742
들었다	-11.2743
▁전통	-11.2743
페이지	-11.2744
▁안봤지만	-11.2744
글고	-11.2746
▁어려워	-11.2746
▁웃음도	-11.2747
▁한국형	-11.2748
▁이상도	-11.2748
▁최고라	-11.2748
▁사연	-11.2749
▁알바들이	-11.2749
▁평타	-11.2749
▁변명	-11.2751
▁장르에	-11.2751
▁샤론스톤	-11.2751
▁에너지	-11.2751
▁씬은	-11.2752
▁가면갈수록	-11.2752
▁죽어서	-11.2754
▁시시한	-11.2754
▁알면서도	-11.2754
▁연출에	-11.2755
▁설레임	-11.2756
▁앙	-11.2756
▁구도	-11.2756
▁맞고	-11.2757
▁기대합니다	-11.2758
▁나라를	-11.2758
▁끝나네	-11.276
▁장쯔이	-11.276
분보고	-11.2761
▁허무하고	-11.2762
▁보장	-11.2762
▁후반으로	-11.2762
▁흥해라	-11.2763
라는거	-11.2764
▁전작들	-11.2766
▁킹	-11.2766
▁도박	-11.2766
▁ᄇ	-11.2766
▁나쁜놈	-11.2767
▁구라	-11.2767
▁멈추	-11.2768
▁안된다는	-11.2768
▁안나와서	-11.2769
▁감당	-11.2769
그의	-11.2769
▁부끄러운	-11.277
▁금요일	-11.277
▁인상적이다	-11.2771
▁하차	-11.2772
홍보	-11.2773
▁명곡	-11.2773
▁납득이	-11.2775
▁찍었다	-11.2775
릴때	-11.2778
작가가	-11.2778
▁영구	-11.2778
▁후회할	-11.278
▁영상물	-11.2781
보여주는	-11.2781
라구	-11.2782
▁죄를	-11.2782
▁영혼을	-11.2782
▁안되네요	-11.2783
▁봤다고	-11.2785
25	-11.2787
버리네	-11.2788
▁닥터	-11.2788
▁본후	-11.279
빠진	-11.2791
킬	-11.2794
▁못볼	-11.2795
▁암살	-11.2796
아아아	-11.2799
것두	-11.2803
▁인내심을	-11.2803
▁무서운거	-11.2804
▁여성의	-11.2805
▁보시는	-11.2806
▁끼어	-11.2807
계를	-11.2809
▁내용전개가	-11.2814
그렇지	-11.2815
▁날이	-11.2819
▁환상적	-11.2821
▁통일	-11.2821
쩜	-11.2822
셧	-11.2824
▁이뻐요	-11.2824
▁평론가들은	-11.2826
▁매력있	-11.2827
셔야	-11.2828
▁모습도	-11.2829
▁통한	-11.283
▁엄마와	-11.283
▁흉내내	-11.2833
▁지구를	-11.2833
▁진지함	-11.2833
▁쩌	-11.2833
▁이준	-11.2834
▁음악영화	-11.2835
켄	-11.2837
져야	-11.2838
하곤	-11.284
▁자아	-11.2841
드릴	-11.2842
묵	-11.2842
존재	-11.2842
보고난후	-11.2842
냄새	-11.2843
평생	-11.2843
뽀	-11.2844
▁졸린	-11.2846
라기엔	-11.2846
아무튼	-11.2846
뮤지컬	-11.2846
슬픔	-11.2846
톰	-11.2847
프랑스	-11.2848
몸매	-11.2848
▁이러니	-11.2848
홍콩	-11.2849
바리	-11.285
▁따라서	-11.285
▁밴드	-11.2852
▁아름다움을	-11.2853
▁140	-11.2853
▁거리가	-11.2855
그닥	-11.2855
▁아니란	-11.2856
▁뭐죠	-11.2856
만들어도	-11.2856
사상	-11.2859
뻔한스토리	-11.2861
▁이런드라마	-11.2863
▁얼굴도	-11.2863
▁드라마였다	-11.2864
▁소년의	-11.2864
무엇보다	-11.2865
▁동급	-11.2866
어렵	-11.2867
재미없네	-11.287
▁긴장을	-11.2872
▁남자들의	-11.2872
▁취급	-11.2872
▁만드는지	-11.2873
▁시선을	-11.2873
▁주연으로	-11.2873
들이다	-11.2875
▁이런영화에	-11.2875
가진	-11.2877
여년전	-11.2877
▁잡은	-11.2881
매우	-11.2882
▁무언가가	-11.2883
▁받지	-11.2885
▁데이	-11.2888
▁시나리오와	-11.2889
결제	-11.2889
슬프고	-11.2893
▁모양	-11.2893
▁마이너스는	-11.2894
▁색깔	-11.2895
호가	-11.2897
▁왔어요	-11.2898
▁한국에	-11.2899
▁본사람	-11.29
들어서	-11.2902
▁있는것도	-11.2902
▁전형	-11.2904
ᅮᅮᅮᅮ	-11.2904
예전에	-11.2904
ra	-11.2907
힘든	-11.2908
거라곤	-11.2912
졸라	-11.2915
▁서기	-11.2915
▁보여주기	-11.2919
▁성우를	-11.2919
▁아들과	-11.292
▁그녀는	-11.2922
▁계시	-11.2924
쉽게	-11.2924
하다못해	-11.2926
대한	-11.2927
me	-11.2928
▁인한	-11.2928
▁빠순이들	-11.2931
▁악역이	-11.2932
▁망한영화	-11.2933
재미있고	-11.2933
▁ᅵ	-11.2933
눈에	-11.2934
▁명작인데	-11.2935
▁또는	-11.2937
▁???	-11.2937
기다	-11.2938
▁되길	-11.2938
▁i	-11.2943
▁캐릭터들의	-11.2943
▁동기	-11.2945
▁맞을	-11.2946
▁말리	-11.2946
감동을	-11.2949
▁원작보다	-11.295
▁볼거리도	-11.295
무섭다	-11.2951
▁만큼은	-11.2953
아아아아	-11.2953
못한다	-11.2954
▁눈과	-11.2955
년들	-11.2956
잘해	-11.2956
쁘	-11.2958
작은	-11.2958
싶었다	-11.2961
중에서도	-11.2961
포드	-11.2964
▁알바생	-11.2964
▁쓴다	-11.2966
▁때리고	-11.2966
!!!!!!!!!!!!	-11.2969
▁얼굴만	-11.297
?????	-11.2971
▁`	-11.2971
▁초기	-11.2972
감사	-11.2973
편보단	-11.2974
▁짝	-11.2975
▁장난이	-11.2975
▁주려	-11.2975
▁아픔이	-11.2978
▁벗기	-11.2979
▁역사의	-11.2981
이라지만	-11.2981
때의	-11.2982
▁이전에	-11.2984
영씨	-11.2984
▁펼쳐	-11.2988
▁발견한	-11.2989
▁터졌	-11.299
디아	-11.2991
점줄	-11.2993
14	-11.2996
▁한때	-11.2999
▁본인이	-11.2999
▁주면	-11.3001
부는	-11.3003
▁납득	-11.3008
보았다	-11.3008
구조	-11.3009
▁노튼	-11.3009
했었다	-11.3012
▁이건머	-11.3015
좋을	-11.3018
험	-11.3018
재밌었다	-11.3018
▁심리묘사	-11.3021
▁돌아간	-11.3022
▁어머니의	-11.3023
바이	-11.3025
▁이해하	-11.3026
▁하시는	-11.3026
▁졸업작품	-11.3033
▁드라마임	-11.3034
감동받	-11.3035
▁고고	-11.3036
▁일깨워	-11.3037
대결	-11.3038
스와	-11.3039
▁bb	-11.3039
▁극장판이	-11.304
▁노래만	-11.3045
▁보스	-11.3046
민주	-11.3047
sh	-11.3047
하게되는	-11.305
하셔서	-11.305
▁뮤직비디오	-11.3052
▁부담	-11.3052
▁정서에	-11.3053
▁기부	-11.3054
▁된게	-11.3056
쇠	-11.3059
장면을	-11.3061
▁죽지	-11.3061
▁흐뭇	-11.3062
▁눈물도	-11.3063
이었다는	-11.3065
게아니라	-11.3066
▁개미	-11.3067
성인	-11.307
나보네	-11.307
▁여주인공은	-11.3072
▁때문이	-11.3072
▁피터	-11.3072
▁나라의	-11.3074
▁영화인데도	-11.3076
▁믿겨지지	-11.3079
▁올레	-11.308
▁정도껏	-11.3081
▁찰리	-11.3084
랙	-11.3084
▁심해	-11.3084
이런영화가	-11.3085
·	-11.3085
룸	-11.3085
▁OCN	-11.3085
▁Very	-11.3085
▁끊임없이	-11.3085
▁아날로그	-11.3085
▁어땠을까	-11.3085
▁엄태웅	-11.3085
▁옴니버스	-11.3085
▁톰행크스	-11.3085
▁핸드폰	-11.3085
쨩	-11.3085
▁love	-11.3085
▁재해석	-11.3085
댈	-11.3085
▁보기드문	-11.3085
▁서서히	-11.3085
▁다녀온	-11.3085
▁마피아	-11.3085
▁토마스	-11.3085
▁좌파	-11.3085
▁압박	-11.3085
#	-11.3085
▁가만히	-11.3085
▁괜춘	-11.3085
▁주옥같은	-11.3085
▁토이스토리	-11.3085
▁설렘	-11.3085
▁장인	-11.3085
▁알겠으나	-11.3086
▁거슬린다	-11.3086
▁멋집니다	-11.3086
▁탐욕	-11.3086
▁아쉬웠다	-11.3086
▁깨알	-11.3086
▁빡쳐서	-11.3088
▁먹먹해지는	-11.3088
▁낯선	-11.3089
▁케이트	-11.3089
니당	-11.3089
▁몰래	-11.3089
▁반지의	-11.3089
▁반성해라	-11.309
▁망했는지	-11.3091
▁벌어지는	-11.3092
▁질질끄는	-11.3093
▁실종	-11.3093
▁그정도	-11.3095
▁알았어	-11.3095
▁기독교인	-11.3096
▁담담하게	-11.3096
▁아쉬워	-11.3097
▁짐작	-11.3097
?""	-11.3098
▁의심스럽다	-11.3098
▁관대하다	-11.3098
▁풀어가는	-11.3099
▁도입부	-11.3099
▁극단적인	-11.3099
▁보실	-11.3099
보고싶은	-11.3099
▁연민	-11.31
▁동참	-11.31
▁아역배우	-11.31
.,.,	-11.31
▁하필	-11.31
년이나	-11.3103
▁이룬	-11.3104
▁더럽게없다	-11.3104
▁동경	-11.3105
놔서	-11.3105
▁실망스러운	-11.3106
▁재미없었던	-11.3107
주고싶다	-11.3108
▁유쾌하다	-11.3108
▁물론이고	-11.3109
▁개봉했을때	-11.3109
▁98	-11.3109
▁낼	-11.311
졌으면	-11.311
▁휴가	-11.3111
▁우디	-11.3111
▁따뜻함	-11.3113
▁괜찮았고	-11.3114
양의	-11.3114
▁잼있어	-11.3116
놔	-11.3117
▁진정성	-11.3117
▁때론	-11.3118
▁철없는	-11.3118
▁유치원생	-11.312
▁느껴졌	-11.312
▁지성	-11.3121
▁높냐	-11.3122
이었어	-11.3123
새롭	-11.3123
▁고래	-11.3125
▁시바	-11.3125
▁이러한	-11.3126
▁신들린	-11.3127
▁만들었던	-11.3127
!!!!!!!!!!!	-11.3128
▁로렌스	-11.3128
▁줄리엣	-11.3128
▁최대한	-11.3128
▁잊어	-11.3128
▁지배	-11.3129
▁찍어라	-11.3131
▁있었을까	-11.3131
갖고	-11.3133
것같고	-11.3133
▁따른	-11.3133
▁끔찍한	-11.3135
▁깨달았다	-11.3135
▁그러지	-11.3136
▁조선족	-11.3139
▁극장서	-11.3139
▁복수가	-11.3139
▁사실적인	-11.314
▁질투	-11.314
▁심했다	-11.314
는것은	-11.314
▁밝은	-11.3141
▁생각지도	-11.3143
▁드리	-11.3143
찾기	-11.3144
▁감동감동	-11.3147
▁일일	-11.3148
▁주지훈	-11.3149
▁안되요	-11.315
▁암시	-11.3151
▁중독성	-11.3153
지말아야	-11.3153
▁피트	-11.3153
▁기다리고	-11.3154
lt	-11.3155
전체	-11.3156
하는건데	-11.3156
▁다가오는	-11.3157
▁디자인	-11.3157
▁잭슨	-11.3159
▁무섭지도않고	-11.3159
▁알아서	-11.3164
▁억	-11.3164
▁이게뭐야	-11.3165
아까	-11.3166
하더만	-11.3167
▁했었는데	-11.3168
▁했다는	-11.3168
▁불사	-11.317
이드라마	-11.3172
▁현빈	-11.3173
▁중에서도	-11.3175
▁활약	-11.3177
했기에	-11.3179
추격	-11.318
▁리얼한	-11.3181
만든다	-11.3181
▁안맞고	-11.3185
봣습니다	-11.3185
▁가시	-11.3186
▁이게왜	-11.3188
보라고	-11.3192
▁짱이에요	-11.3193
▁오류	-11.3193
▁ᄂ	-11.3193
마져	-11.3194
▁분석	-11.3195
▁이름으로	-11.3196
▁한편으로	-11.3202
▁동정	-11.3202
▁연장	-11.3203
▁설레는	-11.3204
▁모두에게	-11.3205
▁볼수가	-11.3207
▁괴수	-11.3209
▁빛나	-11.321
▁최악입니다	-11.3213
▁요소는	-11.3213
▁호러영화	-11.3213
▁당신을	-11.3214
졌던	-11.3214
소리가	-11.3214
▁흐름을	-11.3216
▁잘살	-11.3219
▁내면의	-11.322
▁네가	-11.3221
▁감정의	-11.3222
▁악의	-11.3224
▁그나저나	-11.3225
▁감독님이	-11.3226
▁역활	-11.3226
재미있어	-11.3228
▁짱입니다	-11.3229
으려나	-11.3231
생기고	-11.3231
리오	-11.3232
^^;;	-11.3232
▁볼껄	-11.3233
▁웃기긴	-11.3234
▁go	-11.3234
▁전반	-11.3235
▁안나오나	-11.3236
▁포장한	-11.3237
퇴	-11.3237
▁반전까지	-11.3238
▁대비	-11.3238
▁있겠	-11.3239
▁한국은	-11.324
▁폼	-11.324
▁보이네요	-11.324
닉	-11.3241
▁모아	-11.3242
▁상상력을	-11.3243
뚝	-11.3244
에여	-11.3245
짠	-11.3246
[	-11.3246
꽝	-11.3247
꽤	-11.3248
vs	-11.3248
▁한다면	-11.3248
▁참신함	-11.3249
▁현실적이	-11.325
영활	-11.3251
▁ᄊ	-11.3251
왜이리	-11.3251
▁그땐	-11.3252
성도	-11.3252
▁어처구니가	-11.3252
이었다면	-11.3252
멋있	-11.3253
감도	-11.3254
엉망	-11.3255
▁했다면	-11.3256
▁있으	-11.3256
제작진	-11.3256
감동적이고	-11.3261
▁울나라	-11.3262
시지	-11.3262
월드	-11.3264
▁당황스럽	-11.3265
주변	-11.3265
▁기억은	-11.3266
상의	-11.327
▁피디	-11.3271
형이	-11.3272
보고있는데	-11.3272
▁웃기기도	-11.3274
▁찌질이	-11.3278
▁조용한	-11.328
▁천재다	-11.3281
▁합쳐	-11.3286
▁후에도	-11.3286
▁보네요	-11.3286
▁배운	-11.3287
죽는	-11.329
▁슬펐	-11.3291
▁사회를	-11.3291
잇다	-11.3293
기나	-11.3296
▁옴	-11.3296
▁투성이	-11.3296
▁인물들이	-11.3299
▁퀸	-11.3302
▁실화라는	-11.3303
▁사건을	-11.3305
누님	-11.3306
▁브레	-11.3308
줄알고	-11.3309
▁수위	-11.3314
▁포기한	-11.3314
▁액션씬이	-11.3318
끌고	-11.3318
▁방식이	-11.3319
▁환상의	-11.3322
▁쓰러	-11.3324
▁건진	-11.3331
▁좋아라	-11.3333
모드	-11.3333
▁자체를	-11.3334
했으니	-11.3334
▁관리	-11.3335
많아	-11.3338
아니야	-11.3339
스토리를	-11.3342
말로	-11.3346
사랑을	-11.3348
재미잇	-11.3348
▁가네요	-11.3349
말이필요없	-11.3354
싶은데	-11.3354
▁그래픽도	-11.3355
▁나와라	-11.3355
▁이름만	-11.3355
할수없는	-11.3355
▁추잡	-11.3357
▁속의	-11.3358
▁맛을	-11.3358
▁솔직	-11.3358
리네	-11.3363
▁터짐	-11.3363
▁욕할	-11.3363
점이라도	-11.3363
인건지	-11.3369
뻐	-11.3369
▁조심	-11.3373
▁스케일도	-11.3376
▁귀가	-11.3377
평이	-11.3379
▁롤	-11.3381
▁작품이라고	-11.3381
▁없다면	-11.3381
▁N	-11.3383
▁노출이	-11.3383
▁소리를	-11.3391
▁프리	-11.3392
점이면	-11.3394
▁드라마인데	-11.3395
▁뛰	-11.3395
는거냐	-11.3396
▁정체	-11.3396
에효	-11.3398
▁우리와	-11.3399
지난	-11.34
▁못하나	-11.3401
▁완성도는	-11.3405
▁살아남	-11.3407
생각하게	-11.3408
▁보네	-11.3408
려야	-11.341
▁모두다	-11.3411
점이지	-11.3412
▁합시다	-11.3413
▁달콤	-11.3413
▁묘	-11.3417
▁뭔가를	-11.3418
보신분	-11.3422
▁울림	-11.3423
▁//	-11.3424
▁그림이	-11.3427
▁피로	-11.3429
가끔	-11.3431
▁독백	-11.3433
▁사건의	-11.3433
▁지저분	-11.3436
해야하나	-11.3436
▁눈물나	-11.3437
▁이만큼	-11.3438
▁내눈	-11.3439
▁써라	-11.3441
▁잊혀	-11.3443
▁건물	-11.345
짜릿	-11.345
▁지식	-11.345
▁강시	-11.3456
▁기대보다	-11.3456
던데요	-11.3456
▁재미난	-11.346
▁모티브	-11.346
▁놓	-11.346
녀석	-11.3461
비슷	-11.3462
스럽지	-11.3462
▁바보가	-11.3464
버렸음	-11.3467
탄이	-11.3468
분에	-11.3469
점인데	-11.3472
▁말하기	-11.3472
났을	-11.3473
▁감동으로	-11.3473
▁수정	-11.3473
▁기다렸	-11.3474
▁r	-11.3474
▁보였다	-11.3476
혀서	-11.3477
만들면	-11.3477
하지않는	-11.3478
▁대만	-11.3478
▁한국말	-11.3479
▁구역질	-11.3479
은데	-11.348
▁뒤통수	-11.3482
뻑	-11.3484
벙	-11.3484
▁되냐	-11.3484
팩	-11.3484
▁정답	-11.3485
▁붉은	-11.3485
ᅭ	-11.3485
▁고맙다	-11.3485
▁숨막히는	-11.3485
▁쌍팔년도	-11.3485
쌤	-11.3485
씽	-11.3485
퍽	-11.3485
’	-11.3485
▁아팠다	-11.3485
▁어중간한	-11.3485
▁후유증	-11.3485
▁캐서린	-11.3485
듀	-11.3485
▁장만옥	-11.3485
▁정유미	-11.3485
▁어디선가	-11.3485
▁테론	-11.3485
▁손꼽히는	-11.3485
▁김수로	-11.3485
▁맥라이언	-11.3485
랍시고	-11.3485
▁민주주의	-11.3485
▁브루스윌리스	-11.3486
▁쾌감	-11.3486
▁for	-11.3486
▁씹노잼	-11.3486
▁다르겠지만	-11.3487
▁아이리스	-11.3487
▁피터팬	-11.3487
▁몇안되는	-11.3488
테이프	-11.3488
▁하얀	-11.3488
▁성괴	-11.3488
▁감동적이었어요	-11.3488
▁잔잔히	-11.3488
틀리	-11.3488
▁MC	-11.3489
▁리암	-11.3489
화를	-11.349
▁행복했습니다	-11.349
현이	-11.3491
이였는데	-11.3491
▁린치	-11.3491
▁따듯한	-11.3491
▁그시대	-11.3491
▁없는것	-11.3491
▁왜이런	-11.3492
▁관계가	-11.3492
이런걸	-11.3494
▁초등학생때	-11.3494
▁일본애니	-11.3495
▁여자친구랑	-11.3495
▁고마워요	-11.3495
▁풋풋하고	-11.3495
▁섬세하고	-11.3496
▁절제	-11.3496
▁모르겠어요	-11.3498
▁싫음	-11.3498
▁황제	-11.3499
▁오랜만이다	-11.35
▁아버지와	-11.35
▁어떨지	-11.35
▁늘어지는	-11.3501
▁팬이라서	-11.3503
▁120	-11.3504
▁프레	-11.3504
▁대하여	-11.3505
▁밋밋하고	-11.3507
▁신기하다	-11.3507
▁해학	-11.3508
▁만들었는데	-11.3508
▁많을	-11.3509
▁생각해볼	-11.3509
▁스크린으로	-11.351
▁어메이징	-11.351
▁정신건강에	-11.351
▁폴워커	-11.351
▁촌스럽고	-11.351
▁틀림없다	-11.3511
▁조아요	-11.3511
▁비슷하게	-11.3511
▁코믹연기	-11.3511
▁대단하네요	-11.3513
풀이	-11.3513
▁2%	-11.3514
사랑해	-11.3515
▁근거	-11.3516
▁걸레	-11.3517
셨다	-11.3518
▁핵심	-11.3519
▁니콜키드먼	-11.352
▁하루종일	-11.352
▁사춘기	-11.352
시원	-11.352
▁막장의	-11.3523
▁우리들	-11.3523
한것도	-11.3524
▁한순간도	-11.3524
▁기괴한	-11.3525
▁대가	-11.3526
▁좋아했는데	-11.3528
개월	-11.3529
▁가깝다	-11.3529
▁선생님이	-11.3529
이상은	-11.353
▁슈스케	-11.353
▁오토바이	-11.353
▁이종석	-11.353
▁망함	-11.353
▁이민정	-11.3531
▁한국식	-11.3531
▁높네요	-11.3532
▁좋아하면	-11.3533
▁밝고	-11.3533
▁돌아온	-11.3533
▁좋아합니다	-11.3534
지못한	-11.3535
돼지	-11.3535
▁고소영	-11.3536
남자의	-11.3538
▁경찰이	-11.3538
▁생각밖에	-11.3539
▁와닿는다	-11.3539
▁지루하네요	-11.3539
받아서	-11.354
▁재밌었어	-11.354
▁파라노말	-11.354
▁프레데터	-11.354
▁조재현	-11.354
나오는거	-11.354
▁다가온다	-11.354
▁어려움	-11.354
▁생생한	-11.3543
▁것처럼	-11.3544
적임	-11.3545
▁1%	-11.3545
▁코미디를	-11.3546
▁아이도	-11.3547
▁애국	-11.3547
해짐	-11.3547
인건가	-11.3548
▁멋있게	-11.3549
▁시스템	-11.355
시대의	-11.355
▁최고였음	-11.3551
▁싫어서	-11.3552
▁진구	-11.3554
▁가족끼리	-11.3554
▁,,,	-11.3554
▁이야기들	-11.3554
▁에바	-11.3557
산업	-11.3558
▁아쉽게	-11.3558
▁보다보면	-11.3559
▁동심을	-11.356
▁아무래도	-11.356
주길	-11.3561
▁강추입니다	-11.3561
▁느끼기	-11.3562
▁공개	-11.3562
▁망쳐놨	-11.3563
▁출연료	-11.3564
예전	-11.3565
▁상관없	-11.3566
▁꼬라지	-11.3568
▁뭣도	-11.3568
▁감독아	-11.3568
▁김선아	-11.3568
▁외에	-11.3568
편보고	-11.3569
▁떨어졌	-11.3569
▁없잖아	-11.357
▁흥미진진하고	-11.3571
▁속상	-11.3573
▁이러지	-11.3576
▁소설이	-11.3576
쩔	-11.3578
*^^*	-11.358
▁배우다	-11.358
쓰레기다	-11.3581
▁이정도는	-11.3581
▁이어지	-11.3582
▁실화라고	-11.3582
▁섹	-11.3584
▁된다면	-11.3584
▁살지	-11.3585
▁이슈	-11.3585
▁쓰레기로	-11.3587
▁주인공도	-11.3587
▁허준	-11.3588
▁남김	-11.3589
▁↓	-11.359
▁mbc	-11.359
▁왜이럼	-11.3591
▁이후의	-11.3591
보여서	-11.3591
▁칼로	-11.3594
▁돌리도	-11.3595
▁연결이	-11.3598
▁약하고	-11.3598
자리에	-11.36
▁욕하면서	-11.36
쳐먹	-11.36
▁형성	-11.3601
명이서	-11.3601
▁제정신	-11.3602
▁한국영화중	-11.3602
▁좋아함	-11.3605
▁위로가	-11.3605
▁미치지	-11.3605
▁전국	-11.3606
무엇	-11.3606
했을텐데	-11.3609
▁적어	-11.3612
▁지루해요	-11.3612
▁냉	-11.3614
▁구할	-11.3614
마른	-11.3615
▁댓글알바	-11.3615
▁부실한	-11.3618
▁사랑스럽	-11.3619
▁대박입니다	-11.3619
선을	-11.3622
보낸	-11.3622
▁연출로	-11.3623
▁주변에	-11.3627
▁아담	-11.3628
▁있었어요	-11.363
주던	-11.3634
▁바보로	-11.3639
▁모델	-11.3643
▁보기는	-11.3643
기위한	-11.3644
성으로	-11.3644
▁한국인들	-11.3644
상상	-11.3645
▁주는거	-11.3648
▁돌아가고	-11.3649
▁평가가	-11.365
하던가	-11.365
▁수작임	-11.3651
하겠네	-11.3651
핑	-11.3651
분까지	-11.3653
채널	-11.3655
▁보기도	-11.3655
해야만	-11.3656
▁아버지를	-11.3656
▁기계	-11.3657
델	-11.3658
▁완성도를	-11.3659
퀄리티	-11.3659
ᅢ	-11.3659
보지말	-11.3661
상에	-11.3662
농	-11.3662
▁남자배우	-11.3662
씁쓸	-11.3662
짝퉁	-11.3665
1,2	-11.3666
아무것도	-11.3666
▁강남	-11.3666
▁흑흑	-11.3672
엇던	-11.3672
▁짧	-11.3673
▁보호	-11.3674
▁다음편	-11.3675
중간중간	-11.3676
▁글구	-11.3676
▁슬픔을	-11.3679
맨날	-11.3679
▁역을	-11.368
아픈	-11.368
겟네	-11.3681
▁사랑하게	-11.3682
것임	-11.3683
▁없구만	-11.3684
▁이끌	-11.3684
▁코미디도	-11.3685
고양이	-11.3686
▁무섭다고	-11.3687
안나옴	-11.3687
▁캐릭터들도	-11.3689
▁펜	-11.3691
보냐	-11.3693
▁끝으로	-11.3696
마음을	-11.3696
센스	-11.3697
▁이미지가	-11.3698
▁유우	-11.3698
▁심심할때	-11.3699
학원	-11.3701
던영화	-11.3702
하늘	-11.3703
이였	-11.3705
ig	-11.3706
나간	-11.3707
▁사라지	-11.3707
▁하기에는	-11.3709
놈들이	-11.3712
토리	-11.3713
어이없	-11.3713
▁베트남	-11.3718
연출력	-11.3719
▁등이	-11.3719
여친	-11.3719
▁델	-11.372
▁잔잔하다	-11.3722
▁ᅢ	-11.3723
▁계속해서	-11.3724
▁영화다운	-11.3725
▁넘치고	-11.3725
▁분위기의	-11.3726
제목이	-11.3727
▁마르	-11.373
▁때부터	-11.3731
▁vs	-11.3733
기다리	-11.3739
밖	-11.3739
어지고	-11.374
▁실망감	-11.374
상한	-11.3741
▁쓴거	-11.3745
일까요	-11.3749
분들께	-11.3749
개판	-11.375
내시간	-11.3754
아놔	-11.3754
젠	-11.3754
▁잔인하지도	-11.3755
▁필요는	-11.3757
외에는	-11.3759
▁붙여	-11.3761
위로	-11.3761
▁애니메이션은	-11.3765
▁아마도	-11.3771
▁찾아볼수	-11.3772
▁시켜	-11.3773
올림	-11.3773
▁긴박감	-11.3773
되는데	-11.3773
단다	-11.3777
▁저예산영화	-11.3778
▁잡을	-11.3779
▁인종	-11.378
▁용서가	-11.3781
▁살릴	-11.3784
▁배우고	-11.3786
▁장난해	-11.3786
▁존재감	-11.3788
해야한다	-11.3789
▁한건	-11.3792
스코	-11.3792
▁죽음의	-11.3793
뎁	-11.3794
▁기괴	-11.3794
점이라니	-11.3796
▁기도	-11.3797
▁뿐만	-11.3797
대신	-11.3798
▁육체	-11.3798
▁마주	-11.3799
했던거	-11.3801
▁끄고	-11.3801
▁타락	-11.3803
▁한국드라마	-11.3803
▁였습니다	-11.3806
▁나라가	-11.3808
영화인줄	-11.3809
▁소녀의	-11.3809
▁케이	-11.381
부인	-11.381
회장	-11.381
하네여	-11.3811
달리	-11.3814
보여준	-11.3816
▁영상을	-11.3816
되어야	-11.3816
▁친구를	-11.3817
자도	-11.3819
▁안죽	-11.3822
폐지	-11.3823
▁최고작	-11.3824
▁훈련	-11.3828
▁흘렸	-11.3833
▁이감독	-11.3833
잡는	-11.3835
연출이	-11.3835
▁-_-;	-11.3837
아아	-11.3838
비하	-11.3838
▁시시	-11.3838
▁돌아보	-11.3838
▁나눠	-11.3839
우면	-11.3843
▁써도	-11.3843
▁그곳	-11.3844
▁셋	-11.3844
▁나왔다는	-11.3845
이상한	-11.3846
▁영향	-11.3847
본듯	-11.3851
쌀	-11.3852
만드네	-11.3853
▁모두들	-11.3854
▁대작이	-11.3854
▁사건이	-11.3855
▁고마	-11.3856
▁원제	-11.3857
테니	-11.3857
▁외엔	-11.3857
▁저질영화	-11.3858
려니	-11.3861
▁영혼이	-11.3862
!"	-11.3863
▁감독판	-11.3864
▁나오니	-11.3864
▁위대	-11.3865
든데	-11.3865
▁가식	-11.3865
▁매기	-11.3866
▁몰입감이	-11.3867
▁해줄	-11.3867
▁흠잡을	-11.3867
▁본영화중	-11.3867
▁놓치지	-11.3868
보는거	-11.3868
츄	-11.3868
****	-11.3869
▁연출의	-11.3871
▁기분이다	-11.388
▁수십	-11.3882
▁있었을	-11.3883
하던지	-11.3885
▁더빙도	-11.3885
▁성숙	-11.3886
▁그럴듯한	-11.3888
팔이	-11.3889
되요	-11.3889
▁콜린	-11.389
▁오르	-11.3892
홈	-11.3893
밴	-11.3896
영화에요	-11.3896
역에	-11.3897
▁으리으리	-11.39
렘	-11.3901
▁연출력도	-11.3901
훗	-11.3901
모르겠다	-11.3901
위원회	-11.3901
쭈	-11.3901
▁로버츠	-11.3901
▁맥어보이	-11.3901
▁빈디젤	-11.3901
▁여실히	-11.3901
▁윌스미스	-11.3901
▁중구난방	-11.3901
▁철저히	-11.3901
▁초콜릿	-11.3901
갸	-11.3901
햐	-11.3901
▁신비로운	-11.3901
▁훼손	-11.3901
▁압축	-11.3901
▁모니터	-11.3901
▁좌절	-11.3901
▁일관성	-11.3902
\	-11.3902
질않나	-11.3902
▁감사드립니다	-11.3902
▁하셨	-11.3902
▁생겨	-11.3902
▁최진실	-11.3902
▁베낀	-11.3902
▁사소한	-11.3903
▁뒤로갈수록	-11.3903
읍니다	-11.3903
▁모르겠으나	-11.3903
▁엉뚱한	-11.3903
▁놀라움	-11.3903
▁발톱	-11.3903
▁파멸	-11.3903
▁오래오래	-11.3903
▁스펙타클	-11.3904
▁본질을	-11.3904
▁대략	-11.3904
▁상쾌	-11.3904
▁신뢰	-11.3904
▁역부족	-11.3904
▁볼만하던데	-11.3905
▁신은경	-11.3905
▁돋보였던	-11.3906
▁목표	-11.3906
▁따뜻하다	-11.3906
▁미국에	-11.3907
▁필요할까	-11.3907
자마자	-11.3907
▁만들어내는	-11.3908
▁그렇다치고	-11.3908
▁비참	-11.3908
▁몰려	-11.3908
▁괜찮았어요	-11.3908
▁명예	-11.3909
▁가능성	-11.391
▁실체	-11.391
▁시간여행	-11.391
▁담겨있는	-11.391
▁배드신	-11.391
▁버티	-11.391
▁팬티	-11.3911
▁조커	-11.3912
▁싶어지는	-11.3912
▁인상깊었다	-11.3913
▁잘된	-11.3914
이라는거	-11.3914
▁바라며	-11.3914
▁적극	-11.3915
▁처절한	-11.3915
▁눈물난다	-11.3915
부의	-11.3916
▁재미없던데	-11.3916
▁몰랐던	-11.3916
▁초등	-11.3916
▁불쌍함	-11.3917
▁낚임	-11.3917
▁천녀유혼	-11.3917
▁카타르시스	-11.3917
▁왕따	-11.3917
했더라면	-11.3918
▁안무섭다	-11.3919
▁곁에	-11.3919
▁화난다	-11.3921
▁그래두	-11.3921
▁욕하고	-11.3921
▁그러면	-11.3922
▁조잡하고	-11.3922
숨	-11.3923
▁불쌍하	-11.3924
▁굴	-11.3925
나마	-11.3925
▁저때	-11.3925
점준거중	-11.3927
▁지루합니다	-11.3927
▁신선했다	-11.3928
▁인피니트	-11.3928
▁누구냐	-11.3929
▁괜찮지만	-11.3929
엠씨	-11.393
껀데	-11.393
한편	-11.393
▁산만함	-11.3931
▁익숙한	-11.3931
▁색감이	-11.3932
▁미키	-11.3932
▁볼땐	-11.3932
▁감성적인	-11.3933
▁부재	-11.3934
▁몽환적	-11.3935
▁극단적	-11.3935
▁기술력	-11.3935
▁광해	-11.3936
▁재밌겠다	-11.3936
▁유역비	-11.3938
▁최악이었다	-11.3939
▁무려	-11.3942
▁퀴어영화	-11.3947
당함	-11.3948
이군요	-11.3949
▁돈아까운	-11.3949
▁했네	-11.395
싶어요	-11.3951
하나는	-11.3953
▁토르	-11.3953
▁기대하면서	-11.3955
보세여	-11.3956
어주는	-11.3956
▁공효진	-11.3959
▁인셉션	-11.3959
▁지진희	-11.3959
다시보고싶	-11.3959
할게	-11.396
빠다	-11.3961
▁것으로	-11.3961
▁당할	-11.3961
▁없을듯	-11.3961
▁발랄	-11.3962
▁내용이나	-11.3962
▁절라	-11.3963
▁안본사람	-11.3963
▁만들었지	-11.3964
▁디테일한	-11.3965
▁화장	-11.3966
▁영화보는내내	-11.3967
▁뱀	-11.3968
▁시간가는	-11.3968
▁아들의	-11.3968
▁근육	-11.397
▁연구	-11.3971
으리	-11.3971
과함께	-11.3972
▁식상하고	-11.3974
1990	-11.3975
▁기억남	-11.3975
▁못했지만	-11.3977
▁생략	-11.3978
▁멜로물	-11.3978
▁김구라	-11.3978
▁책도	-11.3979
▁타인	-11.3979
▁독특함	-11.398
해낸	-11.398
▁기대안	-11.398
워크	-11.3981
해졌다	-11.3982
▁농구	-11.3983
▁그러고	-11.3983
▁남는영화	-11.3984
▁관객수	-11.3985
▁못지	-11.3987
나왓	-11.3988
▁실력이	-11.399
했냐	-11.3991
영화중에	-11.3993
▁안티	-11.3993
▁남음	-11.3994
▁나쁘다	-11.3995
▁식상함	-11.3996
▁보고싶지	-11.3996
16	-11.3997
▁황당함	-11.3997
▁이때까지	-11.3998
id	-11.3999
런지	-11.3999
▁놀이	-11.4
▁사람으로서	-11.4
▁법칙	-11.4002
▁대작이다	-11.4002
▁재밌게봄	-11.4003
▁불가능한	-11.4003
▁야한장면	-11.4005
▁강하다	-11.4007
▁난생	-11.4009
▁그때는	-11.401
▁마인드	-11.4012
▁생각해요	-11.4013
▁무적	-11.4014
그런가	-11.4014
러스	-11.4015
▁파워	-11.4016
▁낯	-11.4017
착한	-11.402
싶어	-11.4021
▁분들에게	-11.4022
▁있죠	-11.4024
▁하늘을	-11.4027
▁앞뒤가	-11.4028
안좋	-11.4031
▁운명을	-11.4031
▁말이죠	-11.4032
▁이쁘네	-11.4034
▁별반	-11.4035
▁바뀌고	-11.4035
▁1000	-11.4035
해야겠다	-11.4036
▁형편없다	-11.404
▁울어	-11.404
▁사랑할	-11.4041
영화인듯	-11.4044
찾	-11.4046
적이지도	-11.4049
화부터	-11.4051
all	-11.4052
▁지친	-11.4053
▁씬이	-11.4053
▁하나경	-11.4059
▁뿐이고	-11.406
▁팝	-11.4061
▁하니까	-11.4064
▁어쩌고	-11.4064
▁ᄀᄀ	-11.4064
ᄐ	-11.4065
▁치밀	-11.4065
▁고생한	-11.4065
▁작품으로	-11.4067
▁엄마는	-11.407
▁몇일	-11.407
졌어요	-11.4071
없냐	-11.4073
▁역량이	-11.4073
▁최고의드라마	-11.4073
▁메시지는	-11.4074
탐	-11.4076
▁한번보고	-11.4078
▁무난한	-11.4079
대충	-11.4079
▁투자한	-11.4083
▁공포영화의	-11.4083
▁더빙을	-11.4085
된거	-11.4085
▁어이없네	-11.4086
슬퍼	-11.4087
듣는	-11.4087
▁사실에	-11.4087
곱	-11.4089
▁돋는다	-11.4092
왜이래	-11.4092
▁나오면서	-11.4093
곰	-11.4094
퀸	-11.4096
샘	-11.4097
느와르	-11.4097
▁곳이	-11.4099
메세지	-11.41
버렷	-11.4101
느낀	-11.4102
최강	-11.4102
빼면	-11.4103
▁아들을	-11.4104
할머니	-11.4106
살짝	-11.4106
재밋엇	-11.4108
▁V	-11.4109
▁이야기로	-11.4109
작가의	-11.411
▁대한민국의	-11.411
▁점은	-11.4111
재미도없고	-11.4111
재밌었는데	-11.4115
▁깍아	-11.4117
▁엉망인	-11.4117
▁주연이	-11.4121
▁못봤다	-11.4122
풍경	-11.4122
본건데	-11.4124
▁보이는데	-11.4125
▁모르겟	-11.4126
▁문학	-11.4126
▁킬링타임도	-11.4126
▁할일	-11.4129
▁영화죠	-11.413
▁노래와	-11.4132
na	-11.4133
▁따뜻	-11.4133
저예산	-11.4134
대본	-11.4136
▁가게	-11.4136
놓는	-11.4136
▁표현을	-11.4138
▁이러면	-11.4138
에게서	-11.4138
성향	-11.414
▁인내	-11.4141
았어	-11.4142
뭐라	-11.4143
먹을	-11.4144
인기	-11.4144
▁훈훈하	-11.4148
기억이	-11.4151
▁기억속에	-11.4152
▁보니깐	-11.4153
▁했어	-11.4153
그렇다고	-11.4156
▁뚝	-11.4158
다고해서	-11.4161
▁그녀가	-11.4161
▁여자들은	-11.4164
▁될까	-11.4165
▁흥미가	-11.4166
과거	-11.4167
실수	-11.4169
▁감독들	-11.4169
▁개망	-11.4169
▁영화니까	-11.417
사람도	-11.4171
▁킬	-11.4171
해지네요	-11.4173
▁뻔함	-11.4177
진실	-11.4178
리얼	-11.418
▁지루하다고	-11.418
▁결혼하고	-11.418
신경	-11.4183
차가	-11.4183
보니깐	-11.4184
시청	-11.4185
참고	-11.4187
였는지	-11.4188
스카	-11.419
현실적	-11.4191
▁조조	-11.4194
▁보여주려	-11.4194
▁속편은	-11.4194
▁에스	-11.4195
▁시리즈로	-11.4196
▁어릴적에	-11.4198
▁가슴으로	-11.4198
▁먹은	-11.4199
▁걸려	-11.4203
▁우아	-11.4205
이미	-11.4207
들에겐	-11.4208
gt	-11.4209
▁ᅮᅲ	-11.421
▁주인공인	-11.4211
▁공리	-11.4212
▁볼줄	-11.4214
▁못되는	-11.4216
년생	-11.4216
▁스릴은	-11.4216
▁아까운데	-11.4219
▁극을	-11.4219
▁제작진이	-11.4219
신듯	-11.422
부분에	-11.422
▁봐요	-11.4221
▁스톤	-11.4221
기억에	-11.4228
인것같다	-11.4234
▁나갈	-11.4234
▁버스	-11.4235
▁말지	-11.4237
▁동물들	-11.4238
▁초반은	-11.4238
▁나오던	-11.4238
었구나	-11.4238
▁악당들	-11.4239
멋잇	-11.424
앜	-11.4241
둬	-11.4243
년대의	-11.4244
▁맞음	-11.4244
▁톱	-11.4245
▁내용이지만	-11.4245
▁드립	-11.4247
드라마로	-11.4248
▁열자	-11.4248
병이	-11.4251
▁들어가는	-11.4253
▁우려	-11.4254
▁일점도	-11.4254
▁뽕	-11.4254
지금도	-11.4255
스럽네	-11.4256
된다는	-11.4256
만으로는	-11.4258
한텐	-11.426
하심	-11.4261
▁다가오	-11.4265
▁보여줬	-11.4266
▁수백	-11.4266
▁No	-11.4269
하시면	-11.427
▁말이야	-11.4271
말하는	-11.4272
▁공감대	-11.4273
질때	-11.4274
▁로드	-11.4275
꺼임	-11.4275
▁데려다	-11.4278
▁자격	-11.428
넣어	-11.4282
괜찮았	-11.4284
▁망했다	-11.4286
▁소중함	-11.4286
비슷한	-11.4289
▁인간에	-11.4293
원작을	-11.4295
▁지루함과	-11.4296
▁알수있는	-11.4301
▁어설프	-11.4302
탄은	-11.4302
▁전하고자	-11.4303
▁광주	-11.4303
▁예술을	-11.4305
중심	-11.4305
▁해야할	-11.4309
▁판타지를	-11.4309
▁않았을	-11.4311
서로	-11.4312
▁색다르	-11.4314
▁망작이	-11.4315
일지도	-11.4317
▁볼걸	-11.4318
▁다시보면	-11.4318
▁만들어주	-11.4318
▁친절	-11.4318
▁개연성은	-11.4319
묶	-11.4321
겟지	-11.4322
겨서	-11.4324
▁줄거리는	-11.4327
읽어	-11.4327
im	-11.433
▁잔인하기만	-11.433
밨	-11.4331
▁묻혀	-11.4333
▁과대평가	-11.4333
밌	-11.4333
되기	-11.4333
쿡	-11.4333
퀄	-11.4333
▁자칫	-11.4334
▁바랬	-11.4335
이라곤	-11.4335
▁몰입도는	-11.4335
넬	-11.4336
겸	-11.4336
쑤	-11.4336
q	-11.4336
▁봤는대	-11.4336
▁스칼렛	-11.4336
▁스토리텔링	-11.4336
▁움직임	-11.4336
▁이렇지	-11.4336
▁히틀러	-11.4336
밭	-11.4336
점줍니다	-11.4336
쵸	-11.4336
켈	-11.4336
핍	-11.4336
▁뒷통수	-11.4336
▁자존심	-11.4336
짖	-11.4336
▁불멸의	-11.4336
붓	-11.4336
▁배슬기	-11.4336
▁지독한	-11.4336
▁서세원	-11.4336
▁미션임파서블	-11.4336
▁뽀로로	-11.4336
▁고릴라	-11.4336
▁다케시	-11.4336
▁브라이언	-11.4336
▁타이밍	-11.4336
▁하여금	-11.4336
▁추격씬	-11.4337
▁하루하루	-11.4337
▁짜여진	-11.4337
▁아키라	-11.4337
▁역겹고	-11.4337
▁놀랄	-11.4337
▁흥미롭다	-11.4337
▁얻은	-11.4338
▁6.5	-11.4338
▁능력이	-11.4338
▁지상파	-11.4338
▁어울릴	-11.4338
▁힘내	-11.4338
▁우울증	-11.4338
▁빠져든다	-11.4338
▁헛소리	-11.4339
▁속도감	-11.4339
▁바꿀	-11.4339
▁새로울	-11.4339
▁감동적이예요	-11.434
헌터	-11.434
▁희극	-11.434
▁잼있었음	-11.434
▁가운데	-11.434
▁한결같	-11.434
맛에	-11.4341
우리가	-11.4341
▁한몫	-11.4341
▁친일파	-11.4342
받아야	-11.4342
▁쓰나미	-11.4342
▁끌지	-11.4342
▁걷는	-11.4342
▁고딩때	-11.4343
▁없으며	-11.4344
▁열받아서	-11.4344
▁살아갈	-11.4344
▁왜이러냐	-11.4344
▁짧지만	-11.4345
▁아쉽습니다	-11.4345
노력	-11.4345
▁2002	-11.4345
▁형태	-11.4346
▁로맨스를	-11.4347
▁정사씬	-11.4348
▁알았습니다	-11.4348
▁약빨고	-11.4349
▁무겁지	-11.435
▁예전의	-11.435
▁괜	-11.435
▁작살	-11.435
-10	-11.4351
소재는	-11.4354
▁부를	-11.4354
▁영구와	-11.4354
▁조악한	-11.4354
▁피가	-11.4355
▁왜이러지	-11.4356
▁이유없이	-11.4357
▁비디오용	-11.4358
▁정글	-11.4359
동네	-11.4359
▁이들이	-11.4359
▁취미	-11.436
▁보는듯한	-11.4361
▁유행어	-11.4361
▁유익한	-11.4361
▁아름다워	-11.4363
▁아담샌들러	-11.4364
▁두가지	-11.4365
▁먹칠을	-11.4365
할수있다	-11.4366
▁떨어지지만	-11.4366
▁궁금증	-11.4367
잼잇	-11.4367
▁쿠바	-11.4369
▁먹먹하고	-11.4369
▁조금이라도	-11.4369
▁달달하고	-11.4369
▁책임감	-11.437
것일까	-11.437
▁현실적	-11.4371
▁안됩니다	-11.4371
▁몇년전에	-11.4372
▁구리고	-11.4373
▁짧고	-11.4373
▁개인적	-11.4374
▁사라지고	-11.4374
▁무작정	-11.4375
▁히치콕	-11.4375
▁어정쩡한	-11.4375
▁낮추	-11.4377
했었던	-11.4377
▁말하려고	-11.4378
▁잼있는데	-11.4378
~~~~~~~	-11.4379
▁질질끌고	-11.438
▁급하게	-11.4381
▁성질	-11.4383
▁어이없게	-11.4383
▁압권이다	-11.4383
▁기대이상으로	-11.4384
▁그러니	-11.4384
▁묘사한	-11.4386
▁채민서	-11.4386
▁수고하셨습니다	-11.4386
▁알았지만	-11.4387
프라	-11.4387
▁있기에	-11.4388
▁못된	-11.4388
▁아기자기한	-11.4388
▁홀로	-11.439
▁소름돋는다	-11.439
▁해피엔딩으로	-11.4392
▁있었지	-11.4392
▁김성	-11.4393
▁안듬	-11.4393
▁먹먹해	-11.4393
▁변한	-11.4393
▁너희들	-11.4394
▁알았네요	-11.4395
▁책이	-11.4396
▁연기력을	-11.4396
▁기회를	-11.4397
??????	-11.4397
▁처음보는	-11.4398
캐릭터가	-11.4399
▁만들었다면	-11.4399
▁또다시	-11.44
▁애들용	-11.4404
필드	-11.4404
▁좋아했	-11.4404
▁극의	-11.4406
하려다	-11.4406
▁느껴야	-11.4406
▁각각의	-11.4406
▁아휴	-11.4407
▁윤계상	-11.4407
▁하야오	-11.4408
연기자들	-11.4409
▁무슨생각으로	-11.441
▁해보고	-11.4412
▁되려	-11.4413
▁포드	-11.4414
웃기다	-11.4416
▁멋졌다	-11.4416
느님	-11.4416
▁소비	-11.4416
▁변호사	-11.4418
▁진하게	-11.4418
풀어	-11.4418
▁샀	-11.4418
▁찾을수	-11.4419
막장드라마	-11.442
이라고는	-11.4421
▁조금더	-11.4421
▁재미없었	-11.4421
▁충격적이다	-11.4421
▁엔딩까지	-11.4423
▁생각남	-11.4425
▁빗	-11.4428
▁작업	-11.4429
▁자질	-11.443
▁2009	-11.4432
주말	-11.4439
▁끓	-11.444
▁곽	-11.444
▁바비	-11.4444
왔습니다	-11.4444
▁지금보니	-11.4446
▁별하나도	-11.4446
▁이루어진	-11.4447
▁보기전에	-11.4447
느끼	-11.4449
추천합니다	-11.4449
▁제공	-11.445
▁귀요미	-11.4451
▁못봐주겠	-11.4452
▁그러니까	-11.4453
라기보단	-11.4455
년후	-11.4456
▁즐거웠다	-11.4457
우드	-11.4458
▁과제	-11.4458
▁법한	-11.4458
ᄃᄃᄃᄃ	-11.4458
▁프로그램이	-11.4459
듯한데	-11.4459
▁출연진들	-11.446
▁바보들	-11.4461
▁면도	-11.4462
▁나왔었	-11.4463
▁빠르고	-11.4464
십니다	-11.4465
▁볼거없	-11.4465
▁주인공과	-11.4466
▁최저	-11.4467
▁질주	-11.4467
▁저에게	-11.4468
▁충실하	-11.4468
▁특히나	-11.4469
▁챙겨보는	-11.4471
▁높고	-11.4471
▁나오길	-11.4473
▁벌레	-11.4475
▁개봉작	-11.4475
▁준수	-11.4476
▁재밌지만	-11.4477
▁괜찮다고	-11.4477
▁퉤	-11.4477
으므로	-11.4478
유리	-11.4478
▁추천함	-11.4478
▁목사님	-11.4479
▁빡치	-11.448
거같고	-11.4482
▁헬기	-11.4482
▁대구	-11.4482
해가는	-11.4482
▁맞지만	-11.4483
▁좋은거	-11.4484
▁한국인이	-11.4484
일텐데	-11.4486
▁전형적	-11.4496
▁공감은	-11.4496
▁끝나면	-11.4496
▁난무하는	-11.4496
편이나	-11.4503
▁안보는데	-11.4503
▁친구와	-11.4504
▁귀한	-11.4504
시티	-11.4505
▁높여	-11.4505
▁바가	-11.4506
나오더라	-11.4506
▁여주는	-11.4506
▁잘만든영화	-11.4509
▁아이들도	-11.4509
▁PD	-11.451
▁볼만하고	-11.4511
▁플	-11.4512
▁보지만	-11.4513
▁의아	-11.4515
▁재미업	-11.4516
▁있어야지	-11.4518
▁개성이	-11.4518
생각보다	-11.452
▁영화일뿐	-11.4522
듯합니다	-11.4522
▁리스트	-11.4523
▁죽어도	-11.4524
▁꼭보시길	-11.4524
본인	-11.4525
▁큰일	-11.4525
지맙시다	-11.4526
▁이란	-11.4527
▁무명	-11.4528
완벽	-11.453
▁네이버에서	-11.453
▁그림자	-11.4531
▁예상되는	-11.4531
났습니다	-11.4531
친구가	-11.4533
▁나오지만	-11.4533
▁자매	-11.4534
▁팬인데	-11.4536
삭	-11.4536
무서움	-11.4536
▁뜻이	-11.4536
▁시간의	-11.4537
▁전개되는	-11.4537
▁팬이라	-11.4537
가능한	-11.4541
쉐	-11.4542
▁직원	-11.4543
▁야하다	-11.4545
줫	-11.4547
아름답	-11.455
게되는	-11.455
통쾌	-11.4551
넌	-11.4552
힐링	-11.4552
열심히	-11.4553
쓰래기	-11.4553
▁활동	-11.4554
SF	-11.4554
개뿔	-11.4554
-_	-11.4554
▁중요한건	-11.4555
꼭보세요	-11.4555
▁개실망	-11.4557
좋겠어요	-11.4558
▁모두를	-11.456
재밌었어요	-11.456
그럴	-11.456
▁우수	-11.4561
▁끌려	-11.4562
차별	-11.4563
▁궁금하지	-11.4563
재밌는영화	-11.4564
연결	-11.4564
잘봤어요	-11.4564
연습	-11.4565
▁패기	-11.4566
▁쓰면	-11.4567
대단하다	-11.4568
설레	-11.4569
환경	-11.4569
▁연기들	-11.4569
▁정화	-11.4569
에서부터	-11.457
///	-11.457
▁너네	-11.457
▁영화한편	-11.4571
예쁘고	-11.4573
마루	-11.4574
라인	-11.4581
마디	-11.4582
▁현상	-11.4582
▁티비에	-11.4582
▁가치는	-11.4584
할텐데	-11.4584
사랑해요	-11.4584
데리고	-11.4587
군대	-11.4587
자체도	-11.4587
검사	-11.4588
▁속지	-11.4589
래요	-11.4592
▁무도	-11.4594
좋았던	-11.4596
▁나같은	-11.4597
▁볼수있다	-11.4597
▁뭐든	-11.4597
단지	-11.4601
▁각인	-11.4607
▁찍어도	-11.461
전문가	-11.4612
▁생각과	-11.4612
투성이	-11.4613
▁대형	-11.4613
▁사실적	-11.4614
미녀	-11.4615
왔어요	-11.4617
▁그걸로	-11.4617
▁영화에선	-11.4617
▁벗어나지	-11.4617
자극	-11.4618
▁음악의	-11.4621
▁비평	-11.4628
▁스릴러의	-11.4628
점수를	-11.4629
▁미래의	-11.4629
여기서	-11.463
하자면	-11.4631
종류	-11.4631
▁자는	-11.4633
▁가려	-11.4638
▁줄거리에	-11.4639
결말도	-11.4639
▁연기잘하	-11.464
▁죽임	-11.4642
▁못보	-11.4644
맞아서	-11.4647
뿌리	-11.4649
에로영화	-11.4652
리라	-11.4655
▁저버리지	-11.4655
▁괜찮은영화	-11.4656
▁루즈하	-11.4656
▁감성에	-11.4656
분명	-11.4658
▁서사	-11.4658
▁잡지	-11.4659
▁없기	-11.466
▁과거에	-11.4661
▁제목도	-11.4665
▁잊혀지지가	-11.4666
▁액	-11.467
년은	-11.4672
포기	-11.468
잤다	-11.468
박스	-11.4682
▁이런데	-11.4685
▁시절이	-11.4686
▁차리	-11.4689
▁파일	-11.469
자유	-11.47
▁집중하게	-11.4705
▁이것을	-11.4708
▁의미하는	-11.4709
ᅲᅲᅲᅲᅲᅲᅲᅲᅲᅲᅲᅲᅲᅲᅲᅲ	-11.4712
해야하는	-11.4712
▁줄은	-11.4713
▁민망하	-11.4715
▁안나와	-11.4716
죽이	-11.4718
줄께	-11.4718
▁애기들	-11.472
..-_-;;	-11.4725
▁피어	-11.4725
▁뻔뻔	-11.4726
▁기억하고	-11.4727
▁지네	-11.4727
▁안되지	-11.4729
▁지인	-11.4729
억지스럽	-11.4734
▁철학이	-11.4734
▁본적	-11.4735
▁약을	-11.4736
▁심하네	-11.4738
▁뭣	-11.4738
코가	-11.474
▁연출이나	-11.474
등을	-11.4743
▁해줘서	-11.4744
▁드라마에서	-11.4748
배우님	-11.4749
▁감동까지	-11.4749
▁재미없다는	-11.4751
▁2006	-11.4753
겄	-11.4754
아닌가요	-11.4755
▁들려	-11.4756
퓨	-11.4757
▁가졌	-11.4761
▁나비	-11.4762
▁될지	-11.4762
달아	-11.4764
▁아니여	-11.4764
▁버리는	-11.4764
바래	-11.4765
▁국민들	-11.4765
었더라면	-11.4767
산다	-11.4768
잡을	-11.4768
▁망하는	-11.4769
▁목적이	-11.477
▁제목부터	-11.477
▁나가고	-11.477
▁미스터	-11.4773
▁엘리	-11.4774
▁평가할	-11.4776
왕자	-11.4776
▁접한	-11.4778
▁살아있	-11.4778
▁등장인물들이	-11.4778
▁지능	-11.478
▁하더라	-11.478
정도다	-11.478
나옵니다	-11.4781
▁상당	-11.4785
▁뛰쳐	-11.4785
▁불꽃	-11.4787
륜	-11.4787
▁좋으면	-11.4789
▁놓칠	-11.4789
▁미치	-11.4789
빤	-11.479
소름끼치	-11.479
깡	-11.479
뱅	-11.479
끗	-11.4791
괘	-11.4791
멈	-11.4791
윙	-11.4791
▁샤말란	-11.4791
▁여고괴담	-11.4791
▁쥬라기공원	-11.4791
쪄	-11.4791
▁Bad	-11.4791
▁드릅게	-11.4791
▁몸부림	-11.4791
▁봤으나	-11.4791
▁애틋한	-11.4791
▁인상깊다	-11.4791
▁쿠엔틴	-11.4791
댔	-11.4791
뜰	-11.4791
짬	-11.4791
힝	-11.4791
뎈	-11.4791
▁정확한	-11.4791
▁삼국지	-11.4791
▁여고생	-11.4791
▁멸망	-11.4791
▁당췌	-11.4791
지망생	-11.4791
▁깨끗하	-11.4791
▁두려워	-11.4791
▁테러리스트	-11.4791
패밀리	-11.4791
▁며칠	-11.4791
▁쪽바리	-11.4791
▁하여간	-11.4791
▁이정현	-11.4791
▁국뽕	-11.4791
▁왔다갔다	-11.4792
▁ᄌᄅ	-11.4792
▁음모론	-11.4792
▁베리굿	-11.4792
본다면	-11.4792
눈이	-11.4793
▁종결	-11.4793
▁있었으나	-11.4794
▁극장개봉	-11.4794
▁이겨내	-11.4794
▁브금	-11.4794
▁기분나쁜	-11.4794
▁있었을텐데	-11.4794
▁힘듬	-11.4795
개드림	-11.4795
▁최강희	-11.4795
▁위안부	-11.4795
▁볼까말까	-11.4795
▁반항	-11.4795
살짜리	-11.4796
▁주셔서	-11.4797
▁창문	-11.4797
▁보여줬는데	-11.4797
▁연락	-11.4797
▁두뇌	-11.4797
▁모르겠습니다	-11.4797
▁조롱	-11.4798
▁에혀	-11.4798
▁안타깝지만	-11.4799
▁공격	-11.4799
▁계단	-11.4799
▁생생하다	-11.4799
▁2007	-11.4799
▁웃기려고	-11.4799
▁모든면에서	-11.4801
▁웃길	-11.4803
▁어필	-11.4803
▁독재	-11.4803
▁이러냐	-11.4804
▁감정에	-11.4805
▁궁금하네요	-11.4805
▁수호	-11.4805
▁ᄏᄏᄏᄏᄏᄏᄏᄏᄏᄏᄏᄏ	-11.4805
▁만화로	-11.4806
▁오유에서	-11.4806
▁생각해보면	-11.4807
▁쓸쓸한	-11.4807
▁않았어요	-11.4807
▁친구들이랑	-11.4807
▁치밀하고	-11.4808
▁잠재	-11.4808
▁뭐하러	-11.4808
▁콜린퍼스	-11.4808
우정	-11.4808
준비	-11.4809
▁키스신	-11.481
것과	-11.481
▁앞서간	-11.481
▁평점테러	-11.4811
▁안타깝	-11.4811
▁빠르게	-11.4811
▁얼굴을	-11.4811
▁높음	-11.4815
슬픈	-11.4815
▁보석같은	-11.4815
▁반복되는	-11.4816
▁타입	-11.4817
▁초점을	-11.4817
▁순진	-11.4818
부분에서	-11.4819
▁고집	-11.482
▁7~8	-11.482
없습니다	-11.482
▁과하게	-11.482
트는	-11.4821
르르	-11.4822
▁악당이	-11.4823
▁-1	-11.4823
▁애니메이션을	-11.4823
▁무방	-11.4826
▁귀엽네요	-11.4827
▁개연성없는	-11.4827
▁위안	-11.4827
▁줄거리도	-11.4828
▁생각된다	-11.4828
▁어이없어	-11.4828
▁언더	-11.4829
▁배제	-11.483
▁숀	-11.483
시기를	-11.483
▁봉태규	-11.4831
▁최지우	-11.4831
▁어렵게	-11.4831
▁고쳐	-11.4833
▁이쁘네요	-11.4833
▁되겠다	-11.4836
▁아픔과	-11.4836
▁우울하고	-11.4837
▁남습니다	-11.4837
▁좋은영화다	-11.4838
▁갑이다	-11.484
니까요	-11.4841
▁추억에	-11.4841
▁허비	-11.4842
▁유승준	-11.4842
▁김래원	-11.4842
했어야	-11.4843
▁크리스틴	-11.4843
▁짜증났	-11.4843
겠고	-11.4844
▁웃어야	-11.4844
위해	-11.4845
▁오늘날	-11.4845
▁홍수	-11.4845
▁무시하고	-11.4845
썬	-11.4848
▁넘어가는	-11.4848
나오는데	-11.4851
▁안타까워	-11.4853
▁이선균	-11.4854
▁남자친구	-11.4854
▁변하는	-11.4854
▁AV	-11.4855
▁처음봄	-11.4855
▁영화사에	-11.4855
▁말대로	-11.4855
▁동료	-11.4857
▁토끼	-11.486
야되는데	-11.4863
써먹	-11.4864
▁모처럼	-11.4866
▁명작중의	-11.4866
▁허술함	-11.4867
▁유머와	-11.4867
▁be	-11.4872
▁이상형	-11.4872
▁여운이남는	-11.4872
무리	-11.4874
질러	-11.4875
▁벗는	-11.4875
▁꽃보다	-11.4876
▁돋는	-11.4876
라기보다	-11.4877
▁김남길	-11.4877
먹으면서	-11.4877
▁놀람	-11.4878
▁용기를	-11.4879
▁치곤	-11.4879
▁오유	-11.4882
▁처리	-11.4883
▁봤어도	-11.4885
회까지	-11.4885
▁한방에	-11.4887
▁샹	-11.4888
▁몰고	-11.4889
▁단순하고	-11.489
▁벗고	-11.4891
이야기를	-11.4891
▁터무니없	-11.4892
▁싶었음	-11.4894
▁끊어	-11.4896
▁현실성도	-11.4896
▁지켜보	-11.4896
▁잡히	-11.4896
▁나지	-11.4896
▁거시기	-11.4897
▁서양인	-11.4897
▁넣고	-11.4897
▁빨아	-11.4897
거보고	-11.4897
▁불쾌함	-11.4898
▁하지말고	-11.4899
할수록	-11.49
▁루시	-11.4901
이아닌	-11.4905
빠지고	-11.4906
귀엽	-11.4906
▁편지	-11.4909
▁추천해주고	-11.4909
하기에는	-11.4911
▁자료	-11.4911
그런지	-11.4914
▁못생겼	-11.4915
▁느끼는게	-11.4915
▁않겠다	-11.4916
▁오래전	-11.4918
▁네이버에	-11.4919
▁보느라	-11.492
▁빠르	-11.4921
▁싶을정도로	-11.4922
▁상황과	-11.4922
▁up	-11.4925
났는데	-11.4925
▁따라하기	-11.4926
▁심장을	-11.4928
▁끝장	-11.4929
▁노잼이다	-11.493
주인공들	-11.4933
▁뜬	-11.4933
▁잔인하다	-11.4935
▁축	-11.4935
▁꺄	-11.4936
상황이	-11.4936
둘다	-11.4937
보였다	-11.4937
▁우정이	-11.4939
▁신기할	-11.4939
싶음	-11.494
뭐임	-11.4941
▁오우	-11.4941
▁표현된	-11.4942
▁랩	-11.4942
▁바라보	-11.4945
▁만드는게	-11.4947
거리며	-11.4948
▁호강	-11.4949
▁자신감	-11.4951
▁국내에서	-11.4951
▁들었음	-11.4952
▁애쓴	-11.4955
▁잼있고	-11.4955
포스	-11.4958
▁성장기	-11.4958
▁아이디어가	-11.4959
▁괜찮았	-11.496
▁보수	-11.4964
▁임팩트가	-11.4968
▁동원	-11.4971
말은	-11.4971
▁라면	-11.4972
제작비	-11.4972
▁속아	-11.4977
▁야동을	-11.4978
따구	-11.4979
▁음악까지	-11.498
분장	-11.4981
▁중세	-11.4982
▁안봤다	-11.4982
▁딴짓	-11.4983
▁표현해	-11.4986
▁뚱	-11.4988
▁늘어놓	-11.4989
▁윈	-11.499
▁닭	-11.499
▁봤을때는	-11.4996
▁감동이네요	-11.4996
▁일어났	-11.4998
▁조성	-11.5003
▁쉐	-11.5003
▁기다리는	-11.5004
싶었던	-11.5006
원도	-11.5006
▁죽음이	-11.5006
베르	-11.5008
▁보냐	-11.5009
▁쩔고	-11.501
▁미국은	-11.5011
주의를	-11.5011
43	-11.5011
▁나오나	-11.5012
날때	-11.5013
▁귀여웠	-11.5015
▁영화였네요	-11.5015
사랑하는	-11.5016
▁고급	-11.5017
▁중딩	-11.5017
▁인간미	-11.502
V	-11.502
액션도	-11.502
업고	-11.502
떄문에	-11.5022
한마디	-11.5022
▁주는건	-11.5024
쯧쯧	-11.5026
짤	-11.5026
펜	-11.5026
영화라니	-11.5027
스케일	-11.5027
폼	-11.5027
끊	-11.5027
쭉	-11.5028
▁하나를	-11.5029
▁짜고	-11.5029
핵노잼	-11.5029
새로운	-11.5029
도저히	-11.503
아쉬움	-11.503
생긴	-11.5032
재밌었음	-11.5033
독립영화	-11.5033
▁노력은	-11.5034
▁느려	-11.5035
리뷰	-11.5035
된다고	-11.5035
▁최강의	-11.5036
▁끌리는	-11.5036
생각하고	-11.5037
▁잠만	-11.5038
▁틀리	-11.5038
▁볼거리는	-11.5038
역사상	-11.5038
잼있어요	-11.5039
ie	-11.5039
이야기가	-11.5039
▁낫네	-11.504
외국	-11.504
▁영화였	-11.5041
종교	-11.5042
희망	-11.5044
▁재밋네	-11.5046
께요	-11.5047
거기다	-11.5048
▁가지게	-11.5048
▁질러	-11.5049
▁만족스럽	-11.505
▁추적	-11.5051
응원	-11.5051
▁지나면	-11.5052
▁본시리즈	-11.5053
레알	-11.5053
▁없는거	-11.5053
볼라고	-11.5054
▁들으면	-11.5058
▁다음주	-11.5061
▁높았	-11.5064
▁만났다	-11.5065
▁낚였어	-11.5065
좋았는데	-11.5066
▁분들께	-11.5067
▁일어	-11.5068
버그	-11.5071
라면서	-11.5072
▁고기	-11.5074
선물	-11.5075
▁갖는	-11.5076
▁그러다	-11.5076
하지말자	-11.5077
상처	-11.5077
어버린	-11.5077
▁갈아	-11.5081
버린다	-11.5081
▁당시의	-11.5084
▁다큐영화	-11.5085
▁무서운영화	-11.5086
박사	-11.5086
▁쩜	-11.5087
▁발전이	-11.5089
뻔하고	-11.5089
▁가는데	-11.5092
▁고어물	-11.5094
세력	-11.5096
운데	-11.5097
▁여주인공도	-11.5097
▁띠	-11.5098
▁뿌	-11.5099
▁화제	-11.5101
▁바뀌었	-11.5102
▁동의	-11.5102
▁그것뿐	-11.5104
라며	-11.5105
받지	-11.5105
▁시망	-11.5105
▁네이버는	-11.5105
아침	-11.5108
란걸	-11.5109
▁껴	-11.5111
여진	-11.5113
▁전혀없는	-11.5114
▁시선이	-11.5117
찾았	-11.5117
하는구나	-11.5117
환자	-11.5121
▁해리	-11.5122
▁또보고싶	-11.5123
▁내려가	-11.5124
▁글로	-11.5126
사람의	-11.5127
▁악인	-11.5127
유발	-11.5128
웃고	-11.5128
밤에	-11.513
▁아는데	-11.513
아들이	-11.513
겁나	-11.5133
좋겠	-11.5133
들어가	-11.5133
▁설치	-11.5134
▁do	-11.5135
싫	-11.5138
작품은	-11.5139
▁전쟁에	-11.5142
돋보	-11.5145
▁대상	-11.5145
▁특집	-11.5145
▁ᄂᄂ	-11.5146
연기너무잘	-11.5149
ia	-11.515
뻔함	-11.5152
▁남한	-11.5154
▁사람인데	-11.5157
▁전개를	-11.5158
▁경지	-11.5162
로선	-11.5166
▁우롱	-11.5167
▁낫다고	-11.5168
▁틀어주	-11.5169
▁데뷔	-11.517
▁진실이	-11.517
지않음	-11.5172
주려고	-11.5175
잼씀	-11.5177
▁뛰어났	-11.5177
▁하드	-11.5177
낸다	-11.5177
들과는	-11.5178
;;;;;;	-11.518
주자	-11.5182
▁한쿡영화	-11.5186
▁끝부분	-11.5187
▁연예인이	-11.519
▁흡사	-11.519
▁선정	-11.5191
▁망쳤	-11.5192
▁극적	-11.5192
▁오늘은	-11.5194
재밋고	-11.5195
▁고현정	-11.5196
화나	-11.5198
▁욕심이	-11.52
▁영상미에	-11.5201
▁직장	-11.5203
▁내인생최고의	-11.5205
dd	-11.5207
싶어진다	-11.5209
많네	-11.5215
▁별반개	-11.5215
▁궁금하게	-11.5216
▁주관적	-11.5216
▁도로	-11.5217
▁즐겨보	-11.5218
▁재능이	-11.5221
함께	-11.5224
같습니다	-11.5228
핳	-11.5228
▁라스	-11.523
▁곳곳에	-11.523
▁돋보인	-11.5231
하구나	-11.5232
사람들의	-11.5233
결말은	-11.5233
▁비슷하다	-11.5237
▁하시길	-11.5241
▁나빠	-11.5241
같으면	-11.5244
▁비롯	-11.5247
▁아시아	-11.5247
▁별로지만	-11.5249
▁연기나	-11.525
성격	-11.5251
켓	-11.5253
▁믿기	-11.5256
500	-11.5256
▁초호화	-11.5257
▁낮을	-11.5258
옳	-11.5259
놓았다	-11.5259
▁않기	-11.5259
즌	-11.5259
▁이런쓰레기	-11.5259
▁가르쳐	-11.526
흡	-11.526
▁휴먼	-11.5262
▁일생	-11.5262
얀	-11.5263
펑	-11.5264
▁모든것	-11.5264
▁매튜	-11.5264
▁볼만은	-11.5265
감명깊	-11.5265
▁재미까지	-11.5266
낌	-11.5266
앨	-11.5266
▁잉여	-11.5266
팡	-11.5266
잇음	-11.5266
킥	-11.5267
뉘	-11.5267
띵	-11.5267
엣	-11.5267
▁손오공	-11.5267
▁오줌	-11.5267
▁ever	-11.5267
ᅧ	-11.5267
▁늦은	-11.5267
▁맙소사	-11.5267
▁버금가는	-11.5267
▁봤건만	-11.5267
▁사이코패스	-11.5267
▁어쨋든	-11.5267
▁이스라엘	-11.5267
▁죄책감	-11.5267
▁쫄깃	-11.5267
쌔	-11.5267
^0^	-11.5267
▁이슬람	-11.5267
▁장동민	-11.5267
▁썰렁	-11.5267
▁좌빨	-11.5267
▁별론데	-11.5267
▁유준상	-11.5267
▁부성애	-11.5267
▁조금이나마	-11.5267
|	-11.5267
▁배두나	-11.5267
▁이수근	-11.5267
▁쿵푸	-11.5267
▁그이하도	-11.5267
▁해운대	-11.5267
라운드	-11.5267
▁퍼펙트	-11.5267
▁좌좀	-11.5267
▁꼽히는	-11.5267
▁추구하는	-11.5267
릅니다	-11.5268
▁챙기	-11.5268
▁짙은	-11.5268
▁김민준	-11.5268
▁테스트	-11.5268
▁은은한	-11.5268
▁크로우	-11.5268
▁짜릿함	-11.5268
▁유승호	-11.5268
▁올만에	-11.5268
▁말이필요없음	-11.5268
▁박정희	-11.5268
▁이리저리	-11.5268
▁관찰	-11.5269
▁ᄉᄀ	-11.5269
▁대기업	-11.5269
▁물고기	-11.5269
▁새롭다	-11.5269
▁제외하면	-11.5269
▁나올법한	-11.5269
▁무개념	-11.527
▁순간순간	-11.527
▁찍었을까	-11.527
▁감정표현	-11.527
▁소소하게	-11.527
드림	-11.5271
▁명량	-11.5271
점임	-11.5272
▁맘에든다	-11.5272
▁섬세하게	-11.5272
쩌네	-11.5272
▁종종	-11.5273
▁파이	-11.5273
▁주제의식	-11.5273
▁위대하다	-11.5273
▁‘	-11.5274
▁녹아있는	-11.5274
▁폭파	-11.5274
▁미화시킨	-11.5274
▁사례	-11.5274
▁못한게	-11.5274
▁건축	-11.5275
▁우월	-11.5275
▁모를까	-11.5276
▁무관심	-11.5277
▁편안하게	-11.5277
▁근본	-11.5277
▁안무섭고	-11.5277
▁지닌	-11.5278
▁개성있는	-11.5278
▁세번째	-11.5278
▁되버린	-11.5279
▁미개한	-11.5279
▁절묘한	-11.5279
▁담겨져	-11.5279
▁마련	-11.528
▁알려지지	-11.528
▁기발하고	-11.528
보는줄	-11.528
▁케이스	-11.5281
▁욕설	-11.5281
▁느껴지네요	-11.5282
▁사람들에겐	-11.5282
▁이용해	-11.5282
이라는걸	-11.5282
▁누구에게나	-11.5284
▁안무서움	-11.5284
▁끼워넣	-11.5284
▁못알아	-11.5284
▁잼없어	-11.5286
▁비슷해서	-11.5286
▁일일드라마	-11.5287
▁윌리엄스	-11.5288
▁찾아가는	-11.5288
▁선배	-11.5288
넣은	-11.5288
▁격투	-11.5288
▁양키	-11.5289
▁봤던건데	-11.5289
▁기절	-11.5291
▁평작	-11.5291
전부	-11.5292
▁솔로	-11.5292
▁떠들	-11.5293
▁구지성	-11.5294
▁몰입도를	-11.5294
인줄알고	-11.5295
▁위선	-11.5295
▁나른	-11.5296
▁중심으로	-11.5296
>_	-11.5296
▁건달	-11.5297
▁트와일라잇	-11.5297
▁되는지	-11.5297
▁빠르기	-11.5298
대화	-11.5298
▁그녀를	-11.5298
▁거친	-11.5298
▁쩔었	-11.5299
▁데드	-11.5299
▁무식한	-11.5299
▁이모양	-11.5299
▁짝사랑	-11.5299
▁여전사	-11.53
▁천재적인	-11.53
▁말까	-11.5301
▁없죠	-11.5301
▁니미	-11.5301
▁지루했던	-11.5301
♡♡♡	-11.5301
▁승화	-11.5301
▁전달하고자	-11.5302
▁잼남	-11.5302
▁막장영화	-11.5303
▁놀라게	-11.5303
▁재밋던데	-11.5303
▁내리는	-11.5303
서라도	-11.5305
▁숨어있는	-11.5305
▁좋았네요	-11.5307
연기에	-11.5307
▁뺨	-11.5308
▁진지하고	-11.5309
▁개나소나	-11.5309
▁차인표	-11.5309
위에서	-11.5311
om	-11.5313
▁강력한	-11.5313
▁구석이	-11.5313
일만에	-11.5313
▁이건아니다	-11.5314
▁도덕	-11.5314
▁애잔한	-11.5315
▁풍부한	-11.5315
▁이루는	-11.5317
▁그런대로	-11.5317
더구만	-11.5318
▁자신에게	-11.5319
▁내취향은	-11.5319
▁되돌아보게	-11.532
무시하	-11.5321
▁정상인	-11.5321
▁감동이에요	-11.5321
▁엠비씨	-11.5321
▁한니발	-11.5322
▁비트	-11.5322
▁최악이네	-11.5322
▁제목처럼	-11.5323
▁그려진	-11.5324
▁고루	-11.5324
▁빠지지	-11.5325
▁아직은	-11.5326
▁여운과	-11.5327
파리	-11.5328
▁방황하는	-11.5329
▁대학교	-11.533
▁예정	-11.5331
▁후려	-11.5331
▁촌스럽다	-11.5331
▁향수를	-11.5332
▁아일랜드	-11.5333
▁애들한테	-11.5334
됐으면	-11.5334
▁시청자가	-11.5334
▁있다는걸	-11.5336
▁198	-11.534
▁딸을	-11.5341
▁그사람	-11.5341
▁멋잇	-11.5342
▁된장	-11.5343
노래도	-11.5344
▁열정과	-11.5344
▁프로젝트	-11.5345
▁열번	-11.5345
▁서인국	-11.5345
▁행복하다	-11.5346
아이들	-11.5346
▁놀라고	-11.5346
지금은	-11.5347
재밋는	-11.5348
감동적인	-11.535
▁요즘엔	-11.535
▁고마워	-11.535
▁할듯	-11.5351
▁견자단이	-11.5351
▁일베충	-11.5351
▁갈릴	-11.5353
▁진수를	-11.5353
▁자막으로	-11.5353
▁당대	-11.5353
▁좋은영화입니다	-11.5355
▁덮어	-11.5357
▁장미	-11.5359
▁동화책	-11.536
▁말도안돼	-11.5362
▁아이스	-11.5362
▁욕나옴	-11.5363
▁교수	-11.5364
▁지쳐	-11.5365
우와	-11.5366
▁올려주	-11.5366
▁사실은	-11.5368
▁비행	-11.537
▁기념	-11.5372
을거다	-11.5373
ᄏᄏᄏᄏᄏᄏᄏᄏᄏᄏᄏᄏᄏᄏ	-11.5374
▁이딴영화가	-11.5374
▁실망입니다	-11.5375
▁그래요	-11.5376
검색	-11.5379
▁웬지	-11.5379
▁시사회로	-11.538
나오지	-11.5381
▁안달	-11.5382
▁현재의	-11.5383
▁부분에	-11.5383
▁호텔	-11.5383
▁눈빛연기	-11.5383
▁저예산으로	-11.5387
소재를	-11.5388
▁돈아까움	-11.539
▁윌	-11.5392
▁꾹	-11.5394
▁화면에	-11.5394
~~!!!	-11.5395
▁웃다	-11.5396
해주면	-11.5398
▁말길	-11.5398
▁그려내	-11.5399
▁포스가	-11.5399
나올때마다	-11.54
▁기존의	-11.5401
▁유치할	-11.5404
▁안되게	-11.5405
▁솜씨	-11.5405
출생	-11.5406
▁쌈	-11.5406
▁여동생	-11.5406
▁근래에	-11.5407
하기가	-11.5407
▁시리즈물	-11.5414
▁극과	-11.5416
▁붙잡	-11.5416
▁자리	-11.5416
▁재미없는데	-11.5417
▁여름에	-11.5419
28	-11.5419
▁시사	-11.5422
마지막장면	-11.5422
▁필요하	-11.5422
질질끌	-11.5422
▁보시고	-11.5423
인디	-11.5424
▁자막이	-11.5428
▁부족했다	-11.5429
▁드리고	-11.5431
▁팔아	-11.5431
낮아서	-11.5433
울고	-11.5433
▁그리스	-11.5434
▁나온영화	-11.5437
시키려	-11.5438
뿌려	-11.544
▁보아야	-11.5443
▁고등학교때	-11.5445
▁진리다	-11.5447
▁안되겠	-11.5447
▁화가나	-11.5448
본드라마	-11.5451
▁한쪽	-11.5454
▁보지말고	-11.5455
▁지나가는	-11.5459
▁중간까지	-11.5459
하도록	-11.5459
▁ᄉᄉ	-11.5459
▁강요하는	-11.546
▁되고싶	-11.5461
▁부러	-11.5465
▁장사	-11.5465
▁사전	-11.5465
▁되다니	-11.5466
▁사형	-11.5467
부모	-11.5467
▁애매한	-11.5468
▁있을까요	-11.5469
▁시작해	-11.5474
리즈	-11.5477
▁내용도없고	-11.5479
▁작렬	-11.548
▁실망을	-11.548
만든거	-11.5481
따위는	-11.5483
쌍	-11.5485
▁만드는데	-11.5485
났네	-11.5487
영환가	-11.5487
89	-11.5489
▁서부	-11.5491
▁곳에	-11.5493
스턴	-11.5495
키우	-11.5497
▁개떡	-11.5502
하게만드는	-11.5503
▁소설의	-11.5506
울때	-11.5506
▁진실은	-11.5507
▁★	-11.5507
!!!!!!!!!!	-11.5508
잔인하	-11.5514
▁채널을	-11.5514
출연진	-11.5515
우니	-11.5515
▁신은	-11.5515
ent	-11.5516
▁줄거리를	-11.5516
▁상업적	-11.552
등록	-11.552
▁나오는게	-11.5521
▁있을때	-11.5521
W	-11.5522
▁간직	-11.5522
밉	-11.5523
▁외모가	-11.5524
▁설명은	-11.5524
뭉	-11.5525
사람만	-11.5526
벤	-11.5527
및	-11.5528
본방사수	-11.5528
대한민국	-11.5529
아닐까	-11.5529
지마요	-11.553
▁대변	-11.5531
라는건	-11.5532
▁흘리	-11.5532
탈출	-11.5532
흘러	-11.5534
▁자체의	-11.5536
피어스	-11.5536
버리면	-11.5536
었다면	-11.5537
▁재밌으면	-11.5537
표절	-11.5537
▁성격이	-11.5538
추억이	-11.554
하시는분들	-11.5541
무기	-11.5542
▁지루하지도	-11.5542
할아버지	-11.5542
망한	-11.5542
생각나서	-11.5542
어쩜	-11.5543
장면만	-11.5544
▁나이를	-11.5545
동영상	-11.5545
흥미	-11.5545
들이여	-11.5546
▁어이가없	-11.5547
브리	-11.5548
나머지	-11.5548
탄생	-11.5549
▁원작인	-11.5549
아이들이	-11.555
▁주네	-11.5551
남친	-11.5551
▁안나올	-11.5554
있었음	-11.5554
▁즐기기	-11.5555
감동적이다	-11.5556
만해도	-11.5556
▁저건	-11.5558
▁보여줘야	-11.5559
▁본성	-11.556
▁가위	-11.556
▁행동을	-11.5563
래야	-11.5564
▁호소	-11.5565
▁나오는건	-11.5565
귀엽고	-11.5566
▁너도	-11.5567
▁세트	-11.5567
▁정신없	-11.5573
한다는게	-11.5573
▁값	-11.5574
하지못한	-11.5576
▁로맨스영화	-11.5577
▁생각하니	-11.5578
▁월드	-11.5579
▁본거지	-11.5579
▁이브	-11.558
▁켄	-11.5584
겟음	-11.5585
여자들	-11.5586
로써는	-11.559
▁일깨워준	-11.5591
드네요	-11.5592
▁집중력	-11.5595
왔으면	-11.5595
돈아까워	-11.5596
므로	-11.5596
▁포스터를	-11.5596
▁대단하다고	-11.5601
▁어색해	-11.5601
▁분위기만	-11.5601
감정이	-11.5602
터지고	-11.5604
▁살자	-11.5606
보다더	-11.5607
중하나	-11.5609
▁완전한	-11.5609
▁사서	-11.561
▁명작이지	-11.5612
▁스텝	-11.5614
▁실망시키지	-11.5614
▁이어가	-11.5616
평점에	-11.5617
스포	-11.5618
물어	-11.5618
▁후속	-11.5618
▁이것만	-11.562
▁싶다는	-11.5621
▁자체다	-11.5621
서방	-11.5621
▁ᅡ	-11.5624
▁묘사가	-11.5629
아니지만	-11.5631
▁유치하지	-11.5632
마지막회	-11.5633
을까요	-11.5635
되며	-11.5635
▁아까울정도	-11.5638
▁일본어	-11.5643
생각함	-11.5644
▁싶게	-11.5646
릴수	-11.5647
장진영	-11.5649
▁봤던영화	-11.5651
시청자	-11.5652
법을	-11.5653
꿈을	-11.5654
▁것입니다	-11.5655
안나오는	-11.5656
소름돋	-11.5664
▁머라	-11.5668
▁가르	-11.5669
▁가다	-11.5674
궁금하	-11.5674
▁잃어	-11.5678
▁매력도	-11.5678
눈물흘	-11.5678
삶을	-11.568
▁세명	-11.5682
▁지루하진	-11.5682
소설을	-11.5684
▁어린이들	-11.5684
▁맺	-11.5687
▁붙어	-11.5687
했구나	-11.5691
▁아역들	-11.5692
솜	-11.5698
33	-11.5699
낚였	-11.5699
말라	-11.5701
잼있다	-11.5705
▁시절을	-11.5707
▁별로네	-11.5708
하신분들	-11.5711
그걸	-11.5712
뛰어	-11.5713
평점이낮	-11.5715
초반에	-11.5715
▁비오는	-11.5717
▁내용없는	-11.5721
렴	-11.5721
▁징징	-11.5722
▁찾아보	-11.5727
정말로	-11.5731
▁기대해	-11.5732
▁존재하지	-11.5734
님과	-11.5735
▁개명작	-11.5739
성장	-11.5739
네ᅳᅳ	-11.574
먹는다	-11.574
략	-11.5741
역시나	-11.5743
▁보는중	-11.5744
▁그립	-11.5744
▁작작	-11.5746
▁가치관	-11.5747
캠	-11.5747
▁잼이	-11.575
떤	-11.5754
주었다	-11.5756
뷰	-11.5756
였을까	-11.5757
▁나온건	-11.5759
▁소방관	-11.576
▁덧	-11.5761
되지만	-11.5764
▁빛났	-11.5764
▁비정상	-11.5765
어스	-11.5765
▁여성들	-11.5765
꿨	-11.5765
흙	-11.5765
옵	-11.5766
렐	-11.5766
뱉	-11.5766
찜	-11.5767
훼	-11.5767
왈	-11.5767
텀	-11.5767
ᅣ	-11.5767
▁ᄊᄅᄀ	-11.5767
▁깊다	-11.5767
▁낄낄	-11.5767
▁롱테이크	-11.5767
▁마모루	-11.5767
▁막무가내	-11.5767
▁스포일러	-11.5767
▁에니메이션	-11.5767
▁에반게리온	-11.5767
▁역겨움	-11.5767
▁파치노	-11.5767
乃	-11.5767
뱃	-11.5767
ᄋᄉᄋ	-11.5767
▁this	-11.5767
▁밍밍	-11.5767
▁박유천	-11.5767
▁합리화	-11.5767
▁김규리	-11.5767
▁노다메	-11.5767
▁장선우	-11.5767
▁월드컵	-11.5767
▁곽지민	-11.5767
▁숀펜	-11.5767
▁엑소	-11.5767
▁케로로	-11.5767
▁침략	-11.5767
▁킬빌	-11.5767
>_<	-11.5767
▁쌈마이	-11.5767
▁하이라이트	-11.5767
▁저지른	-11.5767
▁sbs	-11.5767
▁키드먼	-11.5767
▁이문식	-11.5767
▁누굴	-11.5768
▁촌스러움	-11.5768
▁수식어	-11.5768
▁명확하	-11.5768
▁극대화	-11.5768
▁도가니	-11.5768
▁똥폼	-11.5768
▁뜬금포	-11.5768
▁낯설	-11.5768
▁풋풋함	-11.5768
▁미묘한	-11.5768
▁흠뻑	-11.5768
▁슬플	-11.5768
▁웃음코드	-11.5768
▁쇼킹	-11.5768
▁내생의	-11.5769
▁스크림	-11.5769
▁토할뻔	-11.5769
▁어울림	-11.5769
▁나도모르게	-11.577
▁특성	-11.577
부조리	-11.577
라이브	-11.5771
▁9~10	-11.5771
▁각각	-11.5771
▁It	-11.5771
▁실존	-11.5771
▁핑계	-11.5772
▁이질감	-11.5772
입니당	-11.5773
▁똥칠	-11.5773
▁담백하게	-11.5774
▁의학드라마	-11.5774
펙트	-11.5774
짝짝	-11.5774
▁살아간다	-11.5774
▁넘쳐나는	-11.5774
▁흠잡을데	-11.5775
▁나왔는지	-11.5775
▁그립네요	-11.5775
▁정신병원	-11.5775
▁이제그만	-11.5775
▁무튼	-11.5775
▁재벌	-11.5776
▁명절	-11.5776
▁되도	-11.5777
▁나오길래	-11.5777
어색한	-11.5777
▁밉상	-11.5777
▁마술	-11.5778
▁어쩔수없이	-11.5778
▁느껴져서	-11.5778
▁멀쩡한	-11.5778
▁아니더라도	-11.5778
▁금발	-11.5778
▁연계	-11.5778
▁비교도	-11.5779
▁무서웠음	-11.5779
▁입체	-11.5779
▁개망작	-11.578
▁대립	-11.5781
▁바치는	-11.5781
밑	-11.5781
▁기대안하고봤는데	-11.5782
▁사랑스러움	-11.5782
▁줄줄	-11.5782
▁보여지는	-11.5783
▁그려냈다	-11.5784
▁잠자	-11.5784
짓을	-11.5785
▁확실하게	-11.5785
▁어찌보면	-11.5786
▁환영	-11.5787
나왓으면	-11.5787
▁미친영화	-11.5787
인칭	-11.5788
▁머리속	-11.5789
레드	-11.5789
▁죽을때	-11.579
▁알고싶다	-11.579
▁걸릴	-11.579
▁기본적인	-11.579
▁연기실력	-11.579
인권	-11.579
▁잼따	-11.5791
▁구림	-11.5791
▁드러나	-11.5791
▁떨어져서	-11.5791
▁맛있는	-11.5791
볼걸	-11.5792
▁쉽	-11.5792
▁한마리	-11.5792
▁동생이랑	-11.5792
▁일본영화가	-11.5793
▁비참한	-11.5793
▁박힌	-11.5794
▁편히	-11.5794
쩌는	-11.5794
▁로즈	-11.5794
▁김정은	-11.5795
▁돈아깝고	-11.5797
▁호화	-11.5797
생명체	-11.5797
▁아메리칸	-11.5799
▁타이타닉	-11.5799
▁흐른다	-11.5799
▁들었는데	-11.5799
▁순수하게	-11.5799
▁가난한	-11.5799
▁진주	-11.5799
▁자극적이고	-11.58
▁건너	-11.5801
▁씨지	-11.5801
▁너무좋다	-11.5803
▁하나씩	-11.5803
비판	-11.5803
▁서른	-11.5803
▁있었네요	-11.5804
▁짱짱짱	-11.5805
아역	-11.5805
▁(10	-11.5806
▁그딴	-11.5807
농락	-11.5807
생각으로	-11.5808
거같아서	-11.5808
라는건지	-11.5809
▁바꿔라	-11.5809
참나	-11.5809
으면서도	-11.5809
▁흥미진진하게	-11.581
▁자리를	-11.5811
▁마동석	-11.5811
▁박신혜	-11.5811
▁김승우	-11.5811
갑시다	-11.5813
▁신발	-11.5814
▁알차	-11.5815
▁놀랍고	-11.5816
▁머릿속에	-11.5817
▁별로였던	-11.5818
▁친구에게	-11.5818
시리즈는	-11.5818
▁어색해서	-11.582
▁파격적인	-11.582
▁골라	-11.582
▁찍어서	-11.582
▁뒤집어	-11.5821
▁있을듯	-11.5821
▁뗄수	-11.5823
▁코믹요소	-11.5823
▁기대하는	-11.5824
▁데미무어	-11.5824
▁훅	-11.5824
▁브로디	-11.5824
▁자전거	-11.5825
▁기대하며	-11.5826
▁공간에서	-11.5826
hh	-11.5826
▁부담없이	-11.5828
▁짠하고	-11.5828
▁손을	-11.5828
▁떄	-11.583
영환줄	-11.583
▁궁금함	-11.583
▁섬세함	-11.5831
▁전투신	-11.5832
▁어거지로	-11.5832
▁초월한	-11.5833
▁유치하게	-11.5834
▁재밌냐	-11.5834
▁섹시하고	-11.5835
▁원한	-11.5835
▁유선	-11.5837
▁시사회에서	-11.5838
▁비교할	-11.5839
▁나와는	-11.5839
▁사랑과전쟁	-11.5839
▁길어	-11.584
▁스무살	-11.5841
나갈	-11.5842
▁고난	-11.5843
▁전문가평점	-11.5843
선정	-11.5844
좀더	-11.5844
▁어렵고	-11.5845
▁신기하고	-11.5847
▁라스트씬	-11.5847
▁선사하는	-11.5848
▁오디션	-11.5849
▁하지마	-11.585
정도가	-11.5851
▁심리묘사가	-11.5852
▁자식들	-11.5853
모니	-11.5854
▁요즘에	-11.5854
▁입고	-11.5855
터지는	-11.5857
▁생각한다면	-11.5859
▁지연	-11.5861
▁허니잼	-11.5861
▁흰	-11.5862
▁로맨스도	-11.5863
▁쓰레기같은영화	-11.5863
▁짱인듯	-11.5866
▁문명	-11.5866
▁흉	-11.5866
▁정신없이	-11.5867
▁슬픔과	-11.5867
▁상관없이	-11.5871
▁잘봤음	-11.5871
시위	-11.5874
▁놓치	-11.5874
--;	-11.5875
▁풍경이	-11.5878
안됐	-11.5878
▁내인생에	-11.5879
▁있을수	-11.5881
▁그런걸	-11.5881
▁순수함을	-11.5882
운동	-11.5882
발로	-11.5883
▁안되냐	-11.5884
▁튀어	-11.5888
▁매력적이고	-11.5889
되는거	-11.5889
▁흡입력이	-11.589
▁수습	-11.589
▁전체를	-11.589
▁햇	-11.589
▁가족드라마	-11.5892
▁좋아하던	-11.5893
▁와이프	-11.5894
▁모자	-11.5894
▁의리로	-11.5896
▁진자	-11.5897
▁지겹고	-11.5898
▁선정적	-11.59
▁움	-11.5901
▁뒷부분	-11.5901
▁질이	-11.5904
▁이유도	-11.5906
▁데이트	-11.5906
▁해주길래	-11.5908
영화보고	-11.5911
▁최후의	-11.5911
▁보라는	-11.5913
▁죽어야	-11.5915
▁연예인들	-11.5917
▁여자애가	-11.5918
본적이	-11.592
bbbb	-11.592
▁후회한다	-11.5921
▁담으려	-11.5922
▁드래곤	-11.5923
있더라	-11.5923
▁극치를	-11.5925
잔잔	-11.5926
▁사정	-11.5932
▁만들까	-11.5936
▁비극을	-11.5937
▁것들은	-11.5937
▁다르지	-11.5939
▁씨리즈	-11.5939
▁재밌게봤습니다	-11.594
장난치	-11.5943
▁된거	-11.5944
▁갔다가	-11.5944
먹음	-11.5944
▁싶고	-11.5945
▁탈을	-11.5945
▁사랑입니다	-11.5946
▁부족함이	-11.5946
▁22	-11.5949
▁달인	-11.595
▁의지가	-11.595
▁전작을	-11.5951
▁그러면서	-11.5952
해보이는	-11.5953
▁겁나게	-11.5954
▁난감	-11.596
싶으면	-11.5961
▁비극이	-11.5963
▁대사에	-11.5965
▁대표적	-11.5966
▁이용한	-11.5968
▁무리가	-11.5969
▁그런게	-11.5969
일뿐이다	-11.597
▁제목으로	-11.597
24	-11.5972
이거나	-11.5972
정부	-11.5973
▁개짜증	-11.5975
조로	-11.5976
▁언니가	-11.5977
▁그후	-11.5978
▁모르겠는	-11.5979
▁눈물나는	-11.5981
▁밖에는	-11.5982
싸우	-11.5983
▁반면	-11.5984
민망	-11.5988
▁소원	-11.5988
갔음	-11.5989
▁청춘영화	-11.5991
▁혐오	-11.5992
여년	-11.5993
▁했다고	-11.5994
▁제리	-11.5995
▁^-^	-11.5998
▁데려	-11.5999
▁지루하기도	-11.6
▁제인	-11.6002
인양	-11.6005
▁좋아해	-11.6007
ᅲᅲᅲᅲᅲᅲ	-11.6009
▁들인	-11.601
▁남들이	-11.6014
▁단어가	-11.6015
▁전투기	-11.6017
▁주인공으로	-11.6017
헤헤	-11.6017
▁갈리는	-11.6018
▁가사	-11.6019
▁사이에	-11.6025
▁배역이	-11.6026
보일	-11.6026
버려라	-11.6027
▁바람에	-11.6027
▁낮은듯	-11.6028
▁잼써	-11.6031
▁197	-11.6032
펑펑	-11.6034
▁대박임	-11.6036
▁이야기라	-11.6037
▁삭	-11.604
크림	-11.604
▁창피	-11.6041
▁상관없는	-11.6041
재미가없	-11.6041
▁좋던데	-11.6043
닿	-11.6044
햇으면	-11.6045
▁봤었지	-11.6045
▁수술	-11.6048
쿵	-11.6049
▁파도	-11.6051
▁기대하게	-11.6051
흑흑	-11.6052
웬	-11.6052
누군가	-11.6052
닫	-11.6052
▁춤을	-11.6052
▁온몸	-11.6053
잭	-11.6054
엑스	-11.6054
흥미진진	-11.6055
해피엔딩	-11.6055
▁각성	-11.6055
닭	-11.6055
뭥미	-11.6055
라길래	-11.6055
충분히	-11.6056
무조건	-11.6056
이정도면	-11.6056
눈빛	-11.6057
슈퍼	-11.6057
안보고	-11.6057
최고입니다	-11.6059
젠장	-11.6059
▁무섭기	-11.6061
발견	-11.6062
하트	-11.6062
▁드라마중에	-11.6062
있다고	-11.6063
▁생각되는	-11.6065
노무	-11.6065
bs	-11.6066
▁계기	-11.6067
거아닌가	-11.6068
재밌게봤어요	-11.6069
중딩	-11.6069
어릴때	-11.607
젊은	-11.607
반복	-11.607
많아서	-11.607
▁사랑이라는	-11.6071
ᄒᄃᄃ	-11.6073
쓰는거	-11.6074
남긴다	-11.6074
▁행복은	-11.6076
재밌습니다	-11.6077
▁후반부는	-11.6078
어제	-11.6078
댄스	-11.6079
▁매력과	-11.608
시각	-11.6084
▁별점은	-11.6084
돌릴	-11.6086
▁능가	-11.6086
안본다	-11.609
▁미친놈	-11.6095
자체는	-11.6095
▁계신	-11.6096
많은데	-11.6096
▁싸워	-11.6097
재미없어요	-11.6097
▁최악인	-11.61
남자주인공	-11.61
없다고	-11.6102
▁야한영화	-11.6109
싸인	-11.6109
▁연령	-11.6111
나와라	-11.6114
그레	-11.6115
▁마시고	-11.6115
어찌	-11.6115
▁알기	-11.6116
▁없는건가	-11.6118
최악이다	-11.6118
경험	-11.6118
▁와진짜	-11.6118
내인생	-11.6119
▁이기는	-11.6119
되었습니다	-11.6123
▁친구들이	-11.6125
▁관객은	-11.6125
투자	-11.6128
▁주제곡	-11.613
억지로	-11.6131
▁두배우	-11.6131
이뻐	-11.6132
북한	-11.6133
▁본다는	-11.6133
주시길	-11.6137
답답하고	-11.6138
수가없다	-11.6139
지루해서	-11.6139
▁좋은작품	-11.6144
영화였습니다	-11.6145
죽은	-11.6146
입고	-11.6147
▁어려	-11.6151
신다면	-11.6151
▁시걸의	-11.6152
▁만든거지	-11.6153
▁담았	-11.6155
빠르	-11.6156
멋있다	-11.6157
▁충실	-11.616
▁여자배우	-11.6164
▁연기력으로	-11.6166
▁몸매가	-11.6168
▁ᅩ	-11.6169
▁남자인	-11.6172
었어야	-11.6176
▁자연의	-11.6176
이미지	-11.6177
▁될거	-11.6177
진부	-11.6178
번이상	-11.618
▁전반부	-11.618
▁전달하는	-11.6181
입은	-11.6181
▁되네	-11.6181
▁드러내	-11.6181
▁딸의	-11.6181
▁그당시에	-11.6182
▁아름다웠	-11.6187
▁선교	-11.6191
▁이런류	-11.6191
어어	-11.6194
▁설정도	-11.6194
닼ᄏᄏᄏ	-11.6194
▁힐	-11.6196
심심	-11.6198
▁집중할	-11.6198
요소가	-11.62
해야할지	-11.62
▁공감하기	-11.6202
▁한국영화에	-11.6203
▁종이	-11.6203
▁흥행을	-11.6205
부른	-11.6208
렵	-11.6208
▁찾게	-11.6211
▁현실적이지	-11.6213
▁순수함이	-11.6213
▁와나	-11.6214
몰라	-11.6215
배역	-11.6216
▁한순간	-11.6218
대요	-11.6219
관리	-11.622
해본다	-11.6221
▁마지막부분	-11.6222
▁보는건	-11.6222
교사	-11.6223
▁애들영화	-11.6223
떠나	-11.6224
▁웃을수	-11.6225
▁분은	-11.6225
▁연기들이	-11.6226
▁잘표현	-11.6227
마법사	-11.6229
▁알맹이	-11.623
졌을	-11.623
▁손색없	-11.6231
편인데	-11.6235
▁얼굴에	-11.6236
걸린	-11.6236
▁독도	-11.6238
▁구지	-11.6239
▁혈	-11.624
잼있게	-11.624
▁근대	-11.6243
▁오랫만	-11.6245
올린	-11.6245
▁잼있네	-11.6246
▁웃긴영화	-11.6247
되니	-11.6248
▁숨어	-11.6249
▁나중에는	-11.625
▁출연자들	-11.625
▁나온게	-11.6251
▁...............	-11.6251
▁받으	-11.6252
▁역사는	-11.6256
잼있음	-11.6257
▁일상의	-11.6258
다시한번	-11.6258
▁있는건	-11.6259
▁기억남는	-11.6259
▁어디에서	-11.6262
애인	-11.6262
짱나	-11.6262
▁하는구나	-11.6263
로부터	-11.6265
▁보내는	-11.6266
률	-11.6267
▁작전	-11.6267
▁보기전	-11.6269
▁궁금한	-11.6273
▁진작	-11.6275
▁되요	-11.6277
인생을	-11.6278
▁글자	-11.628
펙	-11.6285
쉰	-11.6289
▁간만	-11.629
퀴	-11.629
챙	-11.6291
톡	-11.6292
▁의존	-11.6292
덥	-11.6292
▁1,2,3	-11.6293
욜	-11.6293
ᅦ	-11.6293
삽	-11.6293
똘	-11.6293
log	-11.6293
댜	-11.6293
빽	-11.6293
▁GOOD	-11.6293
▁bgm	-11.6293
▁경쾌한	-11.6293
▁김창완	-11.6293
▁데스노트	-11.6293
▁드라큐라	-11.6293
▁마스터피스	-11.6293
▁시퀀스	-11.6293
▁싱크로율	-11.6293
▁쒸레기	-11.6293
▁안드로메다	-11.6293
▁업그레이드	-11.6293
▁옮겨	-11.6293
▁유튜브	-11.6293
▁지니어스	-11.6293
돠	-11.6293
햄	-11.6293
▁기승전결	-11.6293
▁담백한	-11.6293
▁알렉스	-11.6293
▁저렴한	-11.6293
▁모자이크	-11.6293
▁ᄆᄎ	-11.6293
▁움직이거나	-11.6293
▁지못미	-11.6293
▁리부트	-11.6293
▁안가네	-11.6293
▁제레미	-11.6293
뿐만아니라	-11.6293
▁비둘기	-11.6293
▁물체가	-11.6293
▁따스한	-11.6293
▁이자벨	-11.6293
▁김보성	-11.6293
▁디아즈	-11.6293
▁무한도전	-11.6293
▁케서방	-11.6293
▁인디아나	-11.6294
▁발차기	-11.6294
듯해요	-11.6294
▁김민희	-11.6294
▁밀려온다	-11.6294
▁쿡티비	-11.6294
~~~~~~~~	-11.6294
▁손꼽	-11.6294
▁충동	-11.6294
퍼센트	-11.6294
▁호랑이	-11.6295
▁비춰	-11.6295
▁올라갈때	-11.6295
▁된장녀	-11.6295
▁필립	-11.6295
▁침몰	-11.6295
▁완존	-11.6295
▁기대했건만	-11.6295
▁초한지	-11.6295
▁완결	-11.6295
▁우주전쟁	-11.6295
▁종북	-11.6295
▁흘릴	-11.6295
회사	-11.6296
▁스카이	-11.6296
▁기다린	-11.6296
▁괜찬은	-11.6296
▁아쉬울뿐	-11.6296
▁뻔하디	-11.6296
▁복귀	-11.6296
▁감안해도	-11.6296
▁전달하려는	-11.6297
▁판치는	-11.6297
▁원초적	-11.6297
▁1~2	-11.6297
▁죄악	-11.6298
▁아이디	-11.6298
▁나이먹고	-11.6298
▁수준낮은	-11.6298
▁조악	-11.6298
▁범작	-11.6299
▁명언	-11.6299
▁안남기는데	-11.6299
▁관능	-11.63
▁밀려오는	-11.63
▁직쏘	-11.63
▁안보이	-11.63
▁슬펐던	-11.63
▁마이크	-11.63
▁있도록	-11.63
▁물결	-11.6301
▁기대되네요	-11.6301
▁인상적이었다	-11.6301
▁오래도록	-11.6302
▁비교된다	-11.6302
아냐	-11.6302
▁어쩐지	-11.6302
▁아까웠음	-11.6302
위주로	-11.6303
▁토토	-11.6303
▁말해준다	-11.6303
▁간단하	-11.6304
▁유치하긴	-11.6304
▁빠른전개	-11.6304
▁모범	-11.6304
▁발연기가	-11.6304
▁끔찍하다	-11.6305
▁애환	-11.6305
▁시시하다	-11.6305
▁재미없었어요	-11.6305
▁소외	-11.6306
▁안주는데	-11.6306
▁돈들여	-11.6306
춘향	-11.6306
하니깐	-11.6306
▁국제	-11.6306
▁흑형	-11.6307
▁해주네요	-11.6307
▁들었어요	-11.6307
▁미숙	-11.6307
▁기본적으로	-11.6307
▁춤추는	-11.6308
▁양산	-11.6308
▁아름다워요	-11.6308
▁미련	-11.6309
▁들었습니다	-11.6309
▁5~6	-11.6309
▁개쩐다	-11.6309
▁이기심	-11.631
▁노아	-11.631
▁제외한	-11.6311
파트	-11.6311
▁산타	-11.6311
▁재밌구만	-11.6311
▁억지웃음	-11.6312
▁발악	-11.6312
▁버림	-11.6313
▁주는데	-11.6313
▁“	-11.6314
햇어요	-11.6314
롭게	-11.6314
▁안가네요	-11.6314
▁스릴러도	-11.6315
▁저격	-11.6315
▁만들어놓고	-11.6315
▁화면도	-11.6316
▁개졸작	-11.6316
▁압도적인	-11.6316
▁교훈적인	-11.6316
▁진국	-11.6316
▁실화라서	-11.6317
▁생길	-11.6317
▁됬다	-11.6318
▁괜찮아요	-11.6318
▁모아서	-11.6318
▁매력적임	-11.6319
▁머피	-11.6319
▁거품이	-11.632
▁뻔뻔한	-11.6321
▁감독이나	-11.6322
▁결혼식	-11.6323
▁해설	-11.6323
졸려	-11.6324
▁댓글들	-11.6324
자본	-11.6324
▁산만하다	-11.6324
▁건질게	-11.6324
▁기대하고봤는데	-11.6325
▁유치원	-11.6326
▁장난아니다	-11.6327
▁류승룡	-11.6327
▁클라이막스	-11.6327
▁엄마한테	-11.6327
시간만	-11.6329
▁어처구니없는	-11.6329
▁다있냐	-11.633
▁친구한테	-11.633
▁창피하	-11.6331
▁시점에서	-11.6331
▁않길	-11.6332
▁기대됨	-11.6332
▁찾아봤는데	-11.6333
79	-11.6334
해봐	-11.6334
됬으면	-11.6336
▁없군요	-11.6336
▁베끼	-11.6336
▁최신	-11.6336
▁씁쓸하다	-11.6336
▁생각났다	-11.6337
▁모습들	-11.6337
▁아련하고	-11.6337
▁최고예요	-11.6337
으루	-11.6337
▁사라졌	-11.6338
▁무한한	-11.6338
▁잘하시고	-11.6338
▁넣어서	-11.634
▁로멘스	-11.634
▁민간인	-11.634
하하하하	-11.634
▁미성년자	-11.634
▁관우	-11.6341
▁있기	-11.6341
▁유산	-11.6342
▁두번이나	-11.6346
▁어느하나	-11.6346
▁만들어버린	-11.6346
▁힘들듯	-11.6346
▁할말없다	-11.6346
▁못본게	-11.6347
▁마지막장면에서	-11.6348
▁시작된다	-11.6348
▁입가에	-11.6348
▁주문	-11.6349
▁백번	-11.6349
▁처음이었다	-11.6349
▁울뻔	-11.6349
달려	-11.635
줄려고	-11.635
▁헷갈리	-11.635
▁예고편에	-11.6352
▁종교적인	-11.6352
▁메이저	-11.6353
▁느낄수있는	-11.6353
▁반지의제왕	-11.6354
▁들어오	-11.6354
▁훌륭하	-11.6354
▁따분한	-11.6356
▁소장가치	-11.6356
해야할듯	-11.6357
▁쓰래기영화	-11.636
▁누워	-11.636
▁대단해	-11.636
▁가능성을	-11.636
▁각본을	-11.636
▁만큼의	-11.6361
▁매력있고	-11.6363
▁지루한건	-11.6366
했을듯	-11.6366
▁흥미진진하다	-11.6367
▁블레이드	-11.6367
▁판타스틱	-11.6367
▁조장	-11.6367
▁어이상실	-11.6368
▁영화로만	-11.6368
▁4000	-11.6368
▁쫓아	-11.6369
▁나오지도	-11.6372
영화였음	-11.6372
▁인연이	-11.6372
▁지났	-11.6372
세기에	-11.6374
▁느낌과	-11.6375
▁정체성을	-11.6375
▁발랄한	-11.6375
▁수작이라고	-11.6375
▁가난	-11.6377
▁청소년들	-11.6378
▁상황들	-11.638
떡칠	-11.6381
▁너무하네요	-11.6381
▁아쉬운건	-11.6381
▁시각으로	-11.6381
▁어렷을때	-11.6383
▁치면	-11.6383
▁힐링이	-11.6384
▁설리	-11.6385
▁않았다면	-11.6386
▁끝났으면	-11.6386
▁전투장면	-11.6386
▁불쌍하고	-11.6388
▁2011	-11.6388
▁수십번	-11.639
▁홍보영화	-11.6391
▁유아	-11.6392
엇지만	-11.6394
▁하나만으로도	-11.6394
▁돋보였	-11.6396
▁느낌이었다	-11.6396
▁밥먹	-11.6397
▁별로던데	-11.6397
▁볼수없는	-11.6398
▁오른	-11.6398
▁목소리는	-11.64
봐야하나	-11.64
▁해소	-11.64
▁한국영화를	-11.6401
▁매력있다	-11.6402
▁디지	-11.6403
▁93	-11.6403
▁섬뜩	-11.6404
▁사람으로써	-11.6404
▁뮤직	-11.6406
대단한	-11.6407
▁출연했	-11.6407
▁본인은	-11.6407
▁무성영화	-11.6408
▁but	-11.6408
보이지	-11.6408
시리즈를	-11.6411
급이다	-11.6411
댄다	-11.6412
▁신경을	-11.6412
,,,,,	-11.6413
▁만점짜리	-11.6414
▁개봉할	-11.6415
▁역사와	-11.6417
▁촉	-11.642
다음에	-11.6421
▁그치만	-11.6424
이래서	-11.6424
긴했는데	-11.6426
인거지	-11.6427
▁할수있는	-11.6429
▁제한	-11.643
시시	-11.6432
▁아저씨가	-11.6436
▁어디다	-11.6436
▁나오니까	-11.6438
▁눈은	-11.644
▁가족은	-11.6444
▁조건	-11.6447
▁앵글	-11.6448
울었다	-11.6448
▁자격이	-11.6449
▁살해	-11.6453
▁짓게	-11.6454
▁다른분들	-11.6455
▁들어요	-11.6455
▁유작	-11.6455
▁안나오네	-11.6458
▁형제의	-11.6458
▁입은	-11.6461
▁컴	-11.6461
▁설정을	-11.6462
았고	-11.6465
▁스탈	-11.6465
욬	-11.6466
만들어서	-11.6466
안나온다	-11.6467
▁예술이다	-11.6467
▁침대	-11.6467
싶습니다	-11.6468
▁상상도	-11.6471
게끔	-11.6471
▁바라본	-11.6472
▁강예원	-11.6475
▁진상	-11.6476
즈가	-11.6478
타카	-11.648
▁누구를	-11.6482
▁조연들의	-11.6484
▁수학	-11.6485
▁흥미도	-11.6485
찾다가	-11.6487
▁수준도	-11.6488
▁결과가	-11.6488
@@	-11.649
도아닌	-11.649
▁웃기면서	-11.6491
▁빠짐	-11.6491
▁총으로	-11.6492
▁전개로	-11.6493
▁연기들도	-11.6494
보여줘서	-11.6494
▁최소한의	-11.6495
▁아니였다	-11.6495
▁싼	-11.6496
▁지르고	-11.6498
있었지만	-11.6498
직한	-11.6498
▁원작도	-11.6499
▁보시기	-11.6499
▁터질	-11.6499
뻔했네	-11.6499
▁감흥	-11.65
▁충격과	-11.6502
▁열정을	-11.6503
거늘	-11.6505
힌다	-11.6505
▁av	-11.6506
전문	-11.6506
▁잘어울리는	-11.651
▁애쓰는	-11.651
드시	-11.6511
▁주었다	-11.6511
▁행동들	-11.6512
모토	-11.6513
▁녀석들	-11.6514
;;;;;	-11.6515
▁사람한테	-11.6516
되었던	-11.6517
▁팬이지만	-11.6518
▁빠진다	-11.652
▁짜증날	-11.6521
▁주고싶은	-11.6522
▁맞는듯	-11.6523
▁이거밖에	-11.6524
▁알면	-11.6524
고싶어	-11.6528
~~~~~~~~~~~~~~~~	-11.6528
었으나	-11.653
▁뭉클한	-11.6531
입장	-11.6531
▁장수	-11.6532
▁치밀어	-11.6532
▁권하고	-11.6532
▁싶을때	-11.6533
▁말처럼	-11.6534
개막장	-11.6536
▁못하면	-11.6536
▁고르	-11.6537
▁똥망	-11.6537
▁만든다는	-11.6537
▁나오냐	-11.6539
▁닫	-11.6539
되냐	-11.6539
▁짓거리	-11.6539
▁중국이	-11.6539
▁카드	-11.654
아래	-11.654
▁성인영화	-11.6543
▁뜨고	-11.6544
▁느낌으로	-11.6545
▁밉	-11.6546
▁당신들	-11.655
▁소설로	-11.6552
▁이웃	-11.6553
▁사랑함	-11.6553
▁배우진	-11.6554
▁배우들과	-11.6555
▁줬어	-11.6559
서요	-11.6561
▁소중하	-11.6561
▁형이	-11.6562
나라에서	-11.6563
▁범인은	-11.6566
▁힘들고	-11.6568
위해서	-11.657
편이랑	-11.6572
그러냐	-11.6573
ly	-11.6573
중독	-11.6574
▁말이필요	-11.6577
▁할머니가	-11.6578
때문이	-11.6578
▁줄리	-11.6578
ck	-11.6578
넘치고	-11.658
모양	-11.6582
▁줫	-11.6584
잘만든	-11.6585
▁무너지	-11.6585
거같네	-11.6586
이따구	-11.6589
▁열연이	-11.6589
▁생기는	-11.6589
▁아웃	-11.659
하기위해	-11.6592
▁기준이	-11.6597
▁실화라	-11.6598
윈	-11.6599
J	-11.66
스틱	-11.66
원작이	-11.66
▁눈도	-11.6602
▁여명	-11.6602
세포	-11.6602
씁니다	-11.6603
기본	-11.6604
뚱	-11.6604
▁공포의	-11.6604
▁몰입하기	-11.6604
깜	-11.6605
▁압도적	-11.6607
▁안믿	-11.6608
쪼	-11.6608
▁시절에	-11.6608
빅	-11.661
▁시계	-11.6611
굉장히	-11.6611
▁괴롭	-11.6612
스트레스	-11.6612
쵝오	-11.6612
작렬	-11.6612
멋짐	-11.6613
재미있었어요	-11.6613
귀여운	-11.6613
▁이거보면	-11.6614
후반부	-11.6615
▁살아있다	-11.6615
아픔	-11.6617
▁고전영화	-11.6618
영혼	-11.6618
민족	-11.6619
있는척	-11.662
▁약자	-11.6621
맞은	-11.6621
같았음	-11.6622
잡아	-11.6624
▁구해	-11.6625
▁희생을	-11.6626
▁메시지도	-11.6626
아쉽지만	-11.6626
▁촌스럽	-11.6629
조합	-11.6629
▁미화한	-11.6631
▁화나는	-11.6631
비밀	-11.6632
결과	-11.6633
▁되니	-11.6635
하는사람	-11.6637
시사회	-11.6638
낚시	-11.6642
▁원작만화	-11.6642
▁보내고	-11.6642
정희	-11.6644
처음부터	-11.6646
할것이다	-11.6648
릴려고	-11.6649
▁호흡이	-11.6653
▁하겠다	-11.6655
▁대부분의	-11.6659
▁결말만	-11.666
지루했다	-11.6662
▁답답하게	-11.6667
▁남녀의	-11.6668
▁열어	-11.6668
욬ᄏᄏᄏ	-11.6669
팀이	-11.667
평을	-11.667
모르게	-11.6671
어휴	-11.6672
▁연기며	-11.6675
▁책은	-11.6679
▁부족해	-11.668
▁나았을	-11.668
▁작품성을	-11.6682
▁나두	-11.6683
▁게이는	-11.6684
▁본다고	-11.6688
▁있으신	-11.6691
행위	-11.6694
질질	-11.6694
책을	-11.6695
▁시간아까운	-11.6695
▁판타지영화	-11.6697
현실성	-11.6697
▁남자랑	-11.67
▁엄마를	-11.6701
▁아름다운영화	-11.6702
양심	-11.6704
▁나라는	-11.6707
▁놀라는	-11.6707
▁걸작을	-11.6708
▁가요	-11.671
▁잘생겼다	-11.6711
▁우리를	-11.6715
봣어요	-11.6715
▁관객들이	-11.6715
심각	-11.6715
▁볼만한영화	-11.6716
산으로	-11.6716
▁엔딩도	-11.6716
▁카이	-11.6717
▁헌신	-11.6718
▁됐지	-11.6727
▁좋겠네	-11.6728
진리	-11.6729
조선	-11.6731
넼ᄏᄏ	-11.6733
진심으로	-11.6733
▁봐야될	-11.6735
나는영화	-11.6736
▁존나게	-11.6738
▁의미로	-11.6742
▁솔	-11.6743
그루	-11.6746
▁아버지는	-11.6748
▁첨보네	-11.6749
자신이	-11.6752
할꺼면	-11.6756
그랬어요	-11.6757
스러워서	-11.6758
낄	-11.6759
▁장점	-11.676
▁후로	-11.676
▁얼굴은	-11.6763
답답한	-11.6765
▁사자	-11.677
되어있는	-11.677
내용에	-11.6771
▁웃지	-11.6774
▁필요도	-11.6776
로썬	-11.6779
기라도	-11.6779
봐야되	-11.6781
!!♥	-11.6782
기대를	-11.6784
▁똑같아	-11.6784
▁안타까울	-11.6784
공간	-11.6787
▁재밋을	-11.6791
▁너무너무너무	-11.6794
조작	-11.6795
▁욕나오	-11.6796
부모님	-11.6797
▁코믹도	-11.6798
풀리	-11.6798
▁감성적	-11.6799
▁공존	-11.6803
베리	-11.6804
잼있었	-11.6806
▁엔딩장면	-11.6806
▁했어도	-11.6808
▁어린애	-11.6808
▁노리	-11.6809
▁나치	-11.6809
▁네이	-11.6813
치며	-11.6813
횽	-11.6815
▁갖추	-11.6816
집어	-11.6821
목숨	-11.6821
애들도	-11.6822
▁진다	-11.6822
▁빨리감기	-11.6823
▁윌리엄	-11.6825
라는것을	-11.6826
▁애는	-11.6826
▁있을지	-11.6826
45	-11.6826
▁무책임	-11.6827
▁역사가	-11.6827
▁아까	-11.6828
펀	-11.6836
▁찬란	-11.6838
줄아나	-11.6839
렛	-11.6839
▁샤를리즈	-11.6841
▁코난이	-11.6842
딜	-11.6846
륙	-11.6846
▁중반까지	-11.6846
븐	-11.6847
▁동성애자	-11.6848
헨	-11.6848
▁삽입	-11.6848
뻘	-11.6849
둡	-11.6849
셰	-11.6849
Q	-11.6849
젓	-11.6849
”	-11.6849
▁구로사와	-11.6849
▁김옥빈	-11.6849
▁꼽으라면	-11.6849
▁남녀노소	-11.6849
▁러브레터	-11.6849
▁말코비치	-11.6849
▁맷데이먼	-11.6849
▁머리카락	-11.6849
▁샌들러	-11.6849
▁스나입스	-11.6849
▁시덥잖은	-11.6849
▁어마어마한	-11.6849
▁왤캐	-11.6849
▁조지클루니	-11.6849
▁존쿠삭	-11.6849
▁지날수록	-11.6849
▁포커스	-11.6849
떴	-11.6849
쁠	-11.6849
얌	-11.6849
읎	-11.6849
→	-11.6849
▁유부녀	-11.6849
▁총격전	-11.6849
▁강우석	-11.6849
▁김소연	-11.6849
▁서커스	-11.6849
+_+	-11.6849
▁어우러져	-11.6849
▁철저한	-11.6849
▁박한별	-11.6849
▁파트너	-11.6849
▁야쿠자	-11.6849
▁과언이	-11.6849
▁심금을	-11.6849
▁모호한	-11.6849
▁삽질	-11.6849
▁나뿐인가	-11.6849
▁송중기	-11.6849
▁프리퀄	-11.6849
▁콧물	-11.6849
▁저능아	-11.6849
▁서태지	-11.6849
▁웨스턴	-11.6849
▁평점조절위원회	-11.6849
▁추격전	-11.6849
▁나비효과	-11.6849
:-)	-11.6849
▁아쉬웠던	-11.6849
▁억압	-11.6849
▁길들여	-11.6849
▁자비에	-11.6849
▁쌍둥이	-11.6849
▁부끄럽다	-11.6849
▁지금에서야	-11.685
▁마디로	-11.685
▁시간가는줄모르고	-11.685
▁설득	-11.685
▁인디언	-11.685
▁옳은	-11.685
▁감명깊은	-11.685
▁앤딩	-11.685
▁바둑	-11.685
▁흔하디	-11.685
▁또하나의	-11.685
▁무고한	-11.685
중고딩	-11.6851
▁Best	-11.6851
▁시어머니	-11.6851
▁위협	-11.6851
실에서	-11.6851
▁같았는데	-11.6851
▁특정	-11.6852
▁말하고자하는	-11.6852
▁이정진	-11.6852
▁별점테러	-11.6852
▁매혹적인	-11.6852
▁절실	-11.6852
▁표출	-11.6852
▁늘어지고	-11.6853
▁으휴	-11.6853
▁변함없	-11.6853
▁폐지해라	-11.6853
▁하모니	-11.6853
▁타잔	-11.6854
[...]
